[PAD]
[UNK]
[CLS]
[SEP]
[MASK]
!
"
#
$
%
&
'
(
)
*
+
,
-
.
/
0
1
2
3
4
5
6
7
8
9
:
;
<
=
>
?
@
[
\
]
_
`
a
b
c
d
e
f
g
h
i
j
k
l
m
n
o
p
q
r
s
t
u
v
w
x
y
z
{
|
}
£
§
«
¬
¯
°
±
²
´
µ
·
»
¼
½
¿
×
à
á
æ
ç
è
é
ì
í
î
ï
ð
ñ
ò
ô
÷
ú
ü
þ
ī
ı
ķ
ĺ
ń
ň
ŋ
ŕ
ǃ
ȉ
ɢ
ɪ
ɴ
ʀ
ʙ
ʜ
ʟ
̂
͂
η
ϊ
ї
ն
ᴀ
ᴅ
ᴇ
ᴊ
ᴋ
ᴍ
ᴏ
ᴘ
ᴜ
ἳ
ῆ
ῐ
–
—
―
‖
‗
‘
’
“
”
•
…
‰
′
₹
ℍ
ℎ
▪
️
𝐷
𝐾
𝑎
𝑏
𝑑
𝑒
𝑔
𝑖
𝑘
𝑙
𝑚
𝑛
𝑜
𝑝
𝑟
𝑠
𝑡
𝑢
𝑤
𝑦
𝔹
𝔻
𝕂
𝕌
𝕒
𝕓
𝕕
𝕖
𝕘
𝕙
𝕚
𝕛
𝕜
𝕝
𝕞
𝕟
𝕠
𝕡
𝕣
𝕤
𝕥
𝕦
𝕪
##e
##a
##l
##o
##u
##s
##y
##w
##c
##h
##p
##i
##t
##n
##g
##ї
##d
##r
##z
##m
##ñ
##f
##k
##9
##5
##v
##4
##j
##b
##1
##6
##0
##2
##8
##3
##x
##7
##ī
##ï
##̂
##î
##q
##ì
##à
##ü
##é
##𝕠
##𝕟
##𝕜
##𝕒
##𝕞
##𝕣
##𝕙
##𝕓
##𝑎
##𝑟
##𝑘
##𝑠
##ò
##ô
##𝑦
##𝑑
##𝑛
##𝑜
##ῆ
##×
##°
##𝕥
##á
##ℎ
##𝑚
##𝑡
##±
##𝑔
##𝑖
##ń
##÷
##í
##𝕦
##𝕡
##𝕘
##ʜ
##𝕤
##ᴀ
##ᴍ
##𝕪
##𝕝
##𝕚
##æ
##𝑢
##𝑒
##ɪ
##ɴ
##ɢ
##¬
##ı
##ἳ
##𝕖
##ʙ
##ʟ
##ᴇ
##𝑤
##𝕕
##µ
##²
##η
##͂
##ᴏ
##ᴋ
##ʀ
##𝑏
##è
##ŕ
##️
##ň
##ᴘ
##ᴜ
##ǃ
##ŋ
##ç
##þ
##𝑙
ka
##ng
ba
ki
la
##ong
##yn
##ei
ïa
ha
##ha
##ing
jing
bad
##ar
##ai
##ang
##oh
##ie
sh
##or
##uh
##on
jong
na
##la
pyn
##at
##ne
##ah
##ta
##an
kh
##um
ng
##ia
sha
##it
da
##en
##am
##yl
nong
kat
##hi
don
##yr
##iew
##eh
##ut
##ba
##un
dei
##is
##eng
kum
##er
##em
##ur
long
ong
myn
##ynr
kha
kane
ia
##th
##aw
##kh
sng
##ri
##ew
kyn
ruh
##eit
##bah
##sha
nga
shi
##li
bah
katei
##duh
##ul
##yng
##aid
##ti
##ylla
##ym
##es
##iang
##om
ai
##ka
##ep
ioh
hi
th
##sh
##ad
sor
##ot
sngi
##uk
##ll
tr
##kar
shn
sorkar
##et
hynr
pat
bar
##ih
br
ngi
hynrei
phi
##ien
wan
##oi
##no
jylla
##da
briew
##lang
shnong
mynta
##mar
noh
lah
##al
hap
##si
kyr
ja
baroh
##id
##tri
wei
kam
jingia
me
byn
namar
##st
pyr
seng
bynta
jingk
##ren
##ok
##ait
##wei
ri
paid
##kam
ngut
##lor
##lei
jaka
leh
##ent
por
##iem
kit
jingp
leit
haba
##hai
##ap
##bor
##long
paidbah
##ma
##lam
ar
##aiñ
tang
ym
lyng
##ra
##ct
##op
##el
##ud
sa
##wa
halor
rang
##in
##ylli
shah
ma
mar
##up
trai
haduh
shuh
##ip
dang
pr
ne
rangbah
##ath
blei
maw
##dien
##nem
##don
##kha
##shah
##ik
##tr
pul
##ynn
shim
jings
20
##ung
##yll
##ph
snem
##ec
pha
sam
##athuh
hadien
par
khl
pa
ju
##nd
lada
khun
jingi
sngew
##le
kine
##na
##dc
ph
khu
kata
##ion
bha
hapoh
khasi
bor
co
sy
kren
##yngk
dis
##leh
hill
kham
shong
##ss
hills
iathuh
##ieng
##ieh
##hang
liang
myntri
pynb
pynlong
bun
distri
syiem
##kai
##bar
##il
kumba
##arik
mih
district
##mat
kynth
kitei
##os
##ya
##ol
jingb
ei
shu
jingpyn
tylli
nang
lad
um
wat
jingm
dor
kumta
yn
pulit
biang
##trei
kynt
kyrt
##hala
meg
##ic
syn
##deng
pyrshah
bym
tn
meghala
khubor
##ir
pres
meghalaya
##wai
jingj
buh
man
samla
dep
pynk
##us
kano
trei
lang
##lad
naduh
nongia
tarik
##iah
bn
##eiñ
201
sah
##pa
tip
pynp
thai
com
##men
tha
khn
st
shym
##tip
pyni
kt
sec
thaiñ
##bha
##llong
##ynd
ban
katba
sk
##ngew
shillong
##mie
##oc
to
jingth
##mih
##doh
##juh
##ary
##rah
nongialam
aiñ
khlem
jait
##har
##dei
##ation
rai
kong
ass
##ynti
##est
##noh
iing
##ident
iak
##tei
jingialang
##ied
##thuh
##nt
is
sur
president
##phang
##to
kaei
phah
##hun
pyns
##wah
poi
##ed
lyngba
##shar
dr
##ret
sang
tnad
comm
kyrteng
kali
##thei
lum
mla
khr
lyngdoh
##uid
ks
kawei
##ce
##ess
iaid
shis
secret
dorbar
jur
im
##isa
riew
bnai
##kum
##iv
ind
kynhun
of
##ymm
eh
peit
##dang
##pher
katkum
##iam
kynthup
##ch
myns
ryngk
pisa
con
##dp
lynti
kwah
mdc
pynpaw
hang
##mu
##khot
##ast
##ynriew
donkam
kiwei
shit
pyrthei
secretary
ryngkat
tyng
lait
khynn
lane
soh
##phi
##ist
saw
##ongr
##im
khynnah
##tha
ïoh
kito
##cil
bam
##je
##ber
jai
surok
wanrah
##shon
congr
coun
##donkam
congress
##lek
jingmut
ko
jingiak
khnang
##ukum
sdang
khar
##tion
east
iohi
hukum
daw
jingd
khot
skul
bapher
council
19
##isu
india
ïing
##00
##ty
##wan
pynkh
khynd
kot
isra
jisu
israel
kiei
##ynt
##ngi
tam
pd
ch
##ki
##shong
lap
thaw
kl
pynd
##shai
jingjia
##od
uwei
##lekshon
hapdeng
hima
gar
dkhot
sp
sangma
sn
west
##shi
##iap
khadc
lai
##ymmai
bat
##shan
jia
##bynriew
jingtip
ophi
##rim
ophis
##khmat
garo
pule
##urom
##arap
##iti
##iat
##jar
elekshon
nangta
un
##hikai
sat
te
khmat
##pp
kyrp
##lat
##ub
nongbah
jingt
eiei
assam
met
nongth
##ukom
##stit
mad
##poh
doh
rukom
##sp
san
jingeh
hynn
lem
kumno
beit
mynsiem
dawa
ship
utei
##iong
##tam
##khat
iap
phai
am
rah
shaphang
wah
##san
##ner
kur
party
kynthei
##bun
para
##jor
synshar
##sa
nongk
##bab
muk
pyll
kpa
##hoi
##ee
thoh
pynsh
##lai
##rem
mat
##gh
bi
khang
##rad
kumjuh
##khun
##maw
##jp
pynj
satia
kylla
duk
jaint
jubab
khamtam
jaintia
po
##yngkong
jan
nongtrei
##man
##br
iakren
hok
##ak
re
jingsngew
ktien
uno
heh
kem
rung
dieng
em
jingleh
katne
##ishar
jingkh
##umar
10
jaitbynriew
de
udp
dew
jingshah
##sion
pdiang
bjp
in
pynmih
kita
jingpang
##hih
nongr
##ban
##itt
##uth
katto
nyngkong
iew
jingim
shna
tyngka
kynr
thymmai
tei
shem
pyntrei
burom
jingï
pyniaid
##ment
ra
bhoi
dur
##se
khlieh
ad
ksu
##neng
##bi
hyn
##ge
ialeh
##ynduh
jingl
kti
##una
ktah
jaiñ
pyndonkam
##ate
cem
sch
ap
kylli
lam
jingkyr
##iar
jo
pyllait
une
ro
##esh
kut
##jan
palat
ing
nongthoh
kd
lut
jingthmu
shynr
##osp
##re
##tad
shipai
##sn
kyntu
nongs
##khu
du
shibun
pan
jied
madan
bud
duh
##tal
kino
##ular
uta
nongshong
shynrang
##ission
committ
shwa
iadei
die
pynl
and
##ura
ge
hynnin
ly
shisha
committee
pynbna
ialam
jinglong
pyndep
iai
kajuh
bak
pyrkhat
kyll
##kri
jer
kyrtong
treikam
##outh
##hisha
shuwa
baje
##lem
pl
nonghikai
siew
jop
##ab
mukul
nongp
nalor
ex
##ctor
##one
ieng
kynnoh
12
wad
be
##cy
##ram
jingkren
##him
kmie
##ers
##khar
kyndon
mo
jam
##itom
pynban
bai
mynsh
dewiong
sla
##ive
##law
kynduh
he
thep
##ital
##hik
kon
jingdon
30
##lan
##ymb
sngewthuh
jingsh
sumar
paw
lade
##iaw
kdew
balang
hato
sngewbha
pdeng
jng
dukan
hosp
##itar
##woh
hospital
##rang
##kit
##hiah
##miet
##neral
thung
tem
khraw
##kor
kyrwoh
##liang
mie
nym
##ham
##ly
shai
##dor
katta
##lade
##ja
hiar
min
jingai
jingthoh
##dong
##lo
##vid
jingbym
hangta
khyndew
general
##ynshar
pang
##sngew
pyniap
plie
hajar
for
mut
su
pro
pyntip
commission
11
weng
pop
##ard
high
15
##ohkit
kom
ding
##ity
##thah
jingwan
##shang
mp
bl
##fic
iarap
ujor
pyntreikam
suk
##tan
niam
##soh
##bhalang
##reh
pynt
##raw
shakri
jingshisha
##kmie
nai
##teng
##ish
##phew
bill
pynr
war
thang
jingr
##lum
miet
##awa
##khem
##nong
bang
kyrpang
bu
##lah
mano
le
nongb
sniew
##tarik
##han
##ensi
kyrpad
##jur
##yns
nongrim
kular
khmih
##lehkai
##as
##oit
hangne
jongki
rit
vot
202
bishar
masi
##lieh
kar
##cc
##lur
##ngut
##lp
##cle
##der
covid
tnat
poli
klur
balei
an
##dar
unit
lat
##ngaiñ
thmu
##ial
pynï
koit
##nguh
vote
sengbhalang
kamai
##ock
sing
##wensi
chai
##dan
##ran
el
shabar
saiñ
##lar
##niah
chair
lak
nation
##nga
lei
shen
khnam
##ency
##alem
sien
##uwa
naba
ieh
##ñiew
bas
jerus
jerusalem
tym
cour
rep
npp
konstit
pud
dak
##ous
##khia
national
synr
##ief
tiar
kyrshan
14
constit
bniah
##pl
##uty
##bu
thied
bynr
kim
##step
##ni
##ara
neh
jingpyr
mawlai
##ob
bynrap
spah
ynda
khyr
court
beh
konstitwensi
iada
pyrshang
jingma
##ding
chief
ïathuh
hsp
ris
rup
iakynduh
##ort
kylleng
hspdp
nongst
byr
barim
jud
sem
chairman
##ks
katno
mon
sohra
ilp
kyntait
##hikna
nongstoi
dkhar
bakla
##ian
deputy
khlaw
18
mynstep
##sih
cir
tai
south
aiti
##khuid
pynkhreh
jingiat
cent
##hap
kiew
run
thma
donk
shiteng
jongka
jingiakren
dab
trok
##khubor
sei
khyndiat
shimet
per
tymmen
##ata
13
jingdawa
myll
##utive
pynbeit
##ïi
nongrep
circle
lym
hynñiew
kol
haka
##ector
act
jongu
dc
khiah
##ui
constitu
exec
ram
##ynmaw
##iation
##ule
executive
##dent
phet
conrad
khat
pynsngew
nongsh
pynshitom
sup
police
hikai
2019
ïap
shuk
ïohi
iat
nam
constituency
iakhun
assoc
##jaiñ
dabid
bneng
jingiarap
khia
##ool
jingiakhih
khrist
sait
res
shakhmat
jingtrei
mihngi
li
skhim
##ohnguh
bteng
jingleit
mos
commissioner
nongsynshar
association
school
nor
dap
##dap
kongsan
##tia
##nud
##khi
the
##pat
##jong
ialade
2020
paul
ab
poh
ij
##yntoi
jinghikai
shithi
pol
pynjot
taiew
jingdonkam
tur
kj
##do
block
templ
moses
kloi
jaiñtia
bthah
hn
mane
janmiet
##ro
##khana
##dit
ngeit
jingbam
##iing
mem
khong
##khe
go
dem
shitom
nar
soc
##rong
al
##ern
longkmie
16
##iej
banglad
ta
or
north
ithuh
##are
mylliem
25
pynbiang
jingkylli
bo
dir
kyrdan
tyr
##juk
marwei
##lap
shisien
##rei
jingioh
sc
pynshai
lok
del
state
bangladesh
wal
sngap
rong
step
mang
##istr
2018
200
##ag
mi
lypa
ian
hajan
har
judah
##neh
kynmaw
##alok
duna
cor
runar
##gp
##lle
##shim
ter
paralok
pynkynmaw
juh
director
offic
delhi
##hadc
kheiñ
##ujor
tynr
jowai
ed
kyntiew
kohnguh
##ister
dih
ieit
##ngeit
komp
dong
pynrem
##art
pynduh
##siar
##bit
ag
rta
jaid
nongpoh
##rat
jingmyntoi
##ell
wallam
no
##lc
pet
ailad
pri
pathai
17
##ylliew
##ept
khlam
jingiap
##iph
bs
tih
mrad
##ection
##ust
shapoh
wor
24
naka
tyngeh
tuh
##bert
ang
civ
pynia
##niang
ophisar
jingialehkai
sangeh
symb
ias
##hati
jingkhang
teh
dawai
##istan
iehnoh
##ñia
mariang
ijip
civil
ijipt
riti
##ice
pynkylla
##tor
khlad
kumne
##ance
##amin
##lypa
##jah
pla
hy
shylla
##trep
##eni
pynïap
##lim
marak
pateng
phar
sub
reg
stad
mynshwa
batai
cl
shy
jingiakhun
khuid
##ium
##lic
sai
##eptieng
##pung
##blei
bank
kp
kor
##lin
tnga
##bok
colle
bala
ec
ïaid
iano
phang
union
thom
sawdong
pynshngaiñ
nongï
##ppud
##jri
##ngoh
college
mynjur
khyrd
lashai
syndon
##laiñ
khappud
pynkut
##iw
##vel
jingtohkit
pynur
kyntien
mu
shuki
jurip
mal
pura
thong
pynth
##kj
tik
jar
##ision
##aiah
maws
50
ïar
##iel
hynniew
##uc
lehnoh
nongrum
##tynn
jngoh
jingrwai
mynsaw
comp
pdf
si
##hiar
kai
kadei
bording
kjat
##ïah
rem
iohsngew
nongshun
##upar
##brot
lajong
ran
##kata
ca
jah
nongpyn
shoh
syr
##athuhlypa
pe
namarba
law
sakhi
##beiñ
##tone
khlaiñ
##ynnoh
mynshuwa
##cent
phylla
slem
aut
jingkheiñ
nongthohkhubor
shad
tri
##nam
prestone
rupang
div
raid
2014
jingialam
##aph
21
jngai
sm
##ynjar
donkti
##ona
hyc
mawk
nongd
jingias
##onom
##yrkh
wai
jingjop
##by
pynthikna
jingkynnoh
stud
synran
soi
khyrdop
put
kynta
tul
##briew
sar
##bam
petr
##snam
khie
##khlieh
sngewsih
ksiar
nongmih
pass
watla
tohkit
tulop
ardent
##aroh
##spah
youth
se
##ipal
beaiñ
##erv
##shari
##reilang
22
eks
bri
ot
nongkit
##pdeng
##eid
jiw
synjuk
shaduh
##nai
##bo
##hat
kamra
##rai
##burom
division
saitjaiñ
tad
nongstoiñ
as
ïaleh
amp
##wet
hynriew
jingmih
art
ialehkai
##kjgp
student
fkjgp
skhem
nohp
kashari
ky
pyndap
snam
##kut
##ult
##sap
tynrai
##ter
##riang
23
##ond
phew
kompeni
##yrkhei
##angeh
jingpynb
##ynra
jingstad
jingkyrshan
num
shahsh
work
tura
khyll
sched
duwai
test
mod
##war
jylliew
jingujor
##ynsong
##gan
shang
election
bakhuid
##luid
ho
shatei
ïalam
##sien
їa
##yllong
##jna
jingngeit
##khang
##sning
beiñ
en
number
ksiew
jut
##end
shimti
jaidbynriew
bit
karkhana
jubor
jhadc
khajna
roi
jem
##niew
siat
jingshai
lber
int
100
teng
shaniah
##ua
imlang
##ff
##ver
##ement
autonom
jak
mai
##wer
##kur
slap
khaïi
##ngem
past
shyiap
autonomous
jingkieng
fr
ïak
##thoh
2015
pynrung
jingiaid
jingkit
##aiaw
aiu
pur
##di
bret
##ship
member
##nieh
singh
##moit
nongi
sahlang
fo
station
jingkyrmen
do
kmen
##rit
ïai
jingieit
napdeng
thiah
pynlait
dohkha
##tra
khublei
##sti
##jek
27
hnlc
kul
khad
dohnud
tiket
##wat
##thaw
##iuh
sal
jingong
sordar
##yntih
nongmihkhmat
##ea
##sy
roy
nongkitkam
jingsha
nongniah
jyr
tynsong
minit
tar
bab
basaiaw
vice
##yndong
nabar
prok
##ublic
kurup
ryn
shimkhia
28
sheptieng
jun
sum
##lyngk
##star
khark
##mon
kynti
prokram
synd
raj
sim
bynriew
kabu
##ella
pastor
##diang
dan
rym
##wd
rwai
rakhe
rymb
26
##ral
longiing
##son
jingiakynduh
ryntih
mot
##ïing
##ck
kynroh
mda
##ier
2013
##su
pynroi
kynsan
kynrad
pakhang
kynja
jos
pynsangeh
##velop
basaiawmoit
##ue
40
nongt
maham
##ning
##uri
jingkha
corona
##inguh
develop
hynne
pynkheiñ
board
##kmen
officer
##ga
keiñ
lympung
her
##ith
khaw
social
mynt
hakhmat
2016
##sla
pynkhuid
lama
##and
ml
mawr
pwd
##pyr
map
##uwai
lyngk
29
##wo
##nes
development
jingpynk
symbud
peop
duriaw
##und
shahshkor
##boh
ga
pynieng
sep
jutang
khana
sop
eksamin
langbrot
##hara
ladep
##niam
##ve
kilo
nongl
jingkñia
##haw
##ght
modi
rim
duwan
jingbishar
##ngan
##land
ker
pynneh
nongdie
public
000
##kieh
hek
ur
samoi
pynbha
##las
pynm
jingpyrshah
jingduwai
bsf
iashim
them
ac
mynmiet
pait
bakh
jingkmen
##artment
amen
nongstoin
lieng
bylla
shipor
thew
ñiew
##for
ïeng
nongkyndong
##lot
##por
arngut
central
pynursla
dien
##ulor
jingduna
nohprah
31
department
dok
pher
shella
byrngem
##lyngkot
##khlaw
##ymmang
sport
rev
kyrkieh
jymmang
shiliang
##yf
jingsuk
iam
kaiph
riewlum
jingthung
guh
mraw
thombor
doktor
ni
##hal
##ical
lyer
james
##ure
juk
jingbit
democ
manag
##iad
shiphew
med
khatduh
tap
##asa
##ynei
##phrang
##uti
suba
##liam
second
##hah
puthi
##eph
mardor
shet
gn
kyndit
##sniew
##ies
##well
umsning
##riat
lehse
##liament
##dur
parliament
namarkata
bhah
risaw
komiti
percent
pynim
kr
jingiadei
prad
khusnam
##tynnad
##ohn
bymman
##ngai
khyndai
##ecl
tran
ring
kaban
tim
##liew
jingti
##stur
polit
pynlut
meecl
new
##ynsaw
centre
saul
bitar
ïohsngew
##ratic
bunsien
##oan
phone
ben
khristan
angel
junom
pyrta
democratic
##min
##ution
lyngngoh
all
mawsh
nongkha
klet
jakob
rymphang
##iaid
wait
##phlang
nailar
hynniewtrep
jingbitar
##les
jingduh
buit
##ilon
hat
bom
##khrah
##yntang
##ome
jingpynbna
##endra
vi
club
##ten
badon
##jai
nongwei
##lip
lapang
pynkhlaiñ
set
##uster
##uma
warjri
##hiang
##wieng
mynba
jingbthah
line
jeh
shongs
##dieng
iewduh
##og
kamram
nailur
di
jingiathuh
pynliem
##ost
john
00
laban
sab
babilon
##reme
han
nuk
##kti
pynioh
naiwieng
supreme
petrol
##alam
##alth
kyrkhu
tour
nuksa
qu
nongbylla
donkupar
tyllong
thok
kyrmen
dustur
minister
ham
educ
on
shyrkhei
rupa
tamasa
kaiphod
united
##be
guwa
adel
health
##ho
tuk
##eration
post
##let
lebi
jingkylla
umph
than
road
education
##nc
##nia
pynpoi
guwahati
pyniasoh
rieh
tep
jingtei
gnla
thikna
##ill
##nar
##aphriang
##ju
##mit
babha
##ces
##ynter
##wn
adelbert
##wad
secondary
thup
##raiñ
nangne
##kurim
jh
##sem
##sar
##ivers
cr
pal
riang
jingpyrkhat
byrni
organ
pynhiar
jingkhawai
rel
##rs
marjan
kharshi
wel
shar
jingpule
mus
treh
##loo
khadduh
kad
jingri
nongkhaïi
pynh
iwei
nait
mynder
ela
sol
##abor
kyllalyngkot
amend
nei
mun
khih
##shnong
##ional
schedule
naitung
pynsah
super
sap
##any
arm
nongpang
##rieh
##uit
kaj
trad
students
ii
##ler
jingkwah
phlim
kharkong
fc
nud
lic
##dr
tangba
kyiad
rymbai
song
##bat
laloo
area
hynmen
##de
socie
pynkiew
licen
shano
##irus
##byter
jingsumar
amendment
fin
donbor
gov
##ynriah
univers
##pper
bakhraw
nongwan
##saw
##pah
jingkular
upper
##wir
jingkyn
pynphai
##thait
##ynjur
presbyter
elaka
ïarap
phyllaw
jingsynshar
tuklar
khynra
pynshisha
society
35
iaroh
jingra
mawp
pynhap
pradesh
kharshiing
##so
jingman
pynbor
people
jor
ngat
pynskhem
##bile
nehu
kitab
pynkup
jingrakhe
jingsniew
jingiatreilang
phareng
umphniang
mawlong
lo
mission
sut
##paw
##bai
ialap
phra
klas
laitluid
##ach
pynpra
company
university
khan
jinglut
##ñiang
##ball
jingph
hous
jingsiew
##uel
ngt
kynthoh
admin
##kt
lamphang
tuid
pathar
##yllok
jingjynjar
jingtep
jingiaseng
##ari
sun
ther
jingkitkhlieh
theh
arpa
##tine
muda
sos
##ji
knieh
joseph
pra
longïing
pai
##bak
60
##oint
polo
wahlang
##yrshan
jingpynkh
tyrwa
##syiem
##jot
jinga
pahara
##sc
kidei
phong
iadon
##omon
##ynta
jrong
##umkhrah
nom
##mer
##unt
jingainguh
sports
bamsap
##ket
shil
##din
nongïalam
munic
administr
500
lyngkha
point
shisnem
##ine
nongiathuhlypa
serv
jingshakri
lano
schem
##raham
solomon
synt
jingbuh
pyndem
municipal
##ederation
hall
shik
##ria
##ject
kharkongor
nep
aar
mawkyr
##ngat
jingaiñ
lynter
##du
##ynram
thliew
daniel
##char
##pad
iaiong
hnyf
lynd
napoh
khniang
##khuh
thngan
##me
##ator
ak
donlang
permit
synn
longing
2017
sepngi
tied
##roi
##oram
##khing
jac
mihnoh
myntoi
aff
khliehriat
##wang
aaron
##ens
jinglait
lais
abraham
pynshong
##lyng
risk
45
harud
kiar
##ling
##dem
##fare
mawsynram
acc
bos
##ug
nongap
pynkynriah
##lia
scheme
chi
cs
krem
tax
jingpyntrei
mairang
welfare
bin
dum
##khong
mawphlang
uran
##ton
kin
ïadei
##ngap
nongai
sabha
cluster
lyn
##ñiuh
##ural
kyntang
##phai
##ngam
uranium
ieid
pu
##sngi
arphew
nongkyrshan
##illa
jingmynjur
nongkrem
mobile
paitbah
jingkyrkhu
hun
hind
pala
##bang
mei
##ld
phil
ktem
princ
jingshong
kotkhubor
miz
gro
ud
##jop
ïada
##co
manla
##ese
ïingjaiñ
dara
km
nia
marban
##erson
foot
##oid
phut
jaiaw
mawthoh
iong
shul
kato
jon
tieng
kulai
mr
hangno
metiap
kpu
mawkyrwat
fa
##sing
##tai
##yne
kurim
niew
prof
##sit
lawei
##lakam
presbyterian
gi
lui
##eithaw
mawhati
bleithaw
principal
rynt
##lak
rahbor
badonbor
32
jingshim
shongkurim
secretar
##baje
sad
##enti
kynthih
mana
marbaniang
##jli
##oth
kumar
kynj
jingkiew
##mas
jingpynsh
pyng
##triem
##itiz
men
mul
##jam
mer
tit
tyll
iahap
at
engi
##tap
buhrieh
jir
ser
rib
phc
engine
mynh
jingsngewsih
josh
mag
kew
##nis
jaboh
##ose
##yntur
##ry
tehlakam
license
##khiew
dorkha
khap
cha
jingïa
hanm
ish
##ony
ku
lyngkot
##aïah
pyrkhing
justi
synduk
##pc
##thong
jingïap
prog
football
shullai
so
shisngi
thohdieng
jirang
mb
siang
umiam
shukor
ah
##shop
jingbun
ksuid
projek
marweiñ
cab
##gar
##isha
nongthymmai
joshua
aad
hynñiewtrep
shib
case
joint
##duma
dam
##istor
buddien
aw
##io
##leiñ
engineer
gre
waiñ
khyllung
jeho
je
kli
out
ron
##liance
drok
haki
phlang
karta
dorkhas
riam
##sai
##ista
jingtreikam
thik
##atien
##jrong
jingthaw
##thie
pom
##net
umroi
borabor
beth
pung
jingiada
##bin
##ric
kontra
akor
##yan
##iñ
samuel
bei
mor
ryng
##emb
air
khanglad
nongïathuhlypa
70
##lej
##gn
baha
laiph
wut
kolej
##tynnat
laiphew
##bour
##omin
citiz
federation
##yndai
harum
smai
##lik
kynram
narendra
affai
##sah
shan
##jari
jingsngewkhia
kontrak
naga
umd
sanbor
byrnihat
iar
jin
pun
##bal
cswo
##otduma
dhar
rani
working
jingtih
organis
son
ghadc
iakhih
risaiñ
parliamentary
ribhoi
##embly
krad
babilonia
villa
syiemlieh
inter
nongleit
card
plan
##said
char
##waiñ
labour
office
pynkit
assembly
##istia
bod
##oannis
philistia
gand
##paid
pynshlur
jingshem
synniang
##ds
##ness
jingpynshai
ïakren
home
pynngat
##ont
jingbha
soitan
gandhi
yo
##lass
199
suda
ïaroh
shaphrang
chyne
gu
##bih
bymjuk
sohwaiñ
##ulmar
hu
##ute
khah
pyndam
bieit
##ulture
jyrwa
bymjukut
37
banse
197
##bilat
rad
lute
tak
##tiar
##oph
shemphang
nongsiej
govern
secretariat
bish
fir
##not
##bon
ïakhun
##lation
jingialeh
pynkhih
project
urlong
app
by
beng
mukotduma
tbit
laiñ
##jied
##ald
nongbishar
bol
##ble
forum
shongthait
dewbilat
adv
program
wer
iatreilang
alliance
##bakla
mizoram
village
wing
##thiah
ïano
kynrum
##thymmai
sin
will
##nang
##vc
##ynjuh
citizen
##pt
sniang
##bad
mark
khreh
agnes
front
##pliang
##ven
##isi
petros
syntiew
tlot
khoh
shongkha
kambah
jingpeit
mala
##phran
shispah
kyllon
mawkhar
khleh
suki
rud
suh
uei
pm
kand
laitumkhrah
basah
##rin
jynjar
jingkhot
phyr
##ide
hop
seiñ
thei
six
##hok
##ii
##tun
##mai
shngaiñ
##ek
latip
##osit
higher
jot
##tok
rangbahduh
synod
bujli
shyntur
##mane
marbam
riewspah
eastern
dawki
doctor
kandid
pynurlong
ssa
robert
ut
##ali
hasem
shaid
jingjur
##mary
mareh
pynjah
jingkyrpad
group
tir
inner
forest
eph
sw
nongpyniaid
affairs
hot
sta
wom
##met
##ynnong
2012
apost
jingshitom
justice
aha
snieh
superin
kandidet
ps
kyrhai
##jee
shangpliang
itynnad
shalan
iatai
eli
##pih
jngohkai
up
##mi
##tific
manip
pum
##pdiang
##yllem
lyndet
superinten
khet
##ence
dar
##lung
##ino
jingkhynra
##areen
kñia
##ngor
##pyrshah
##beit
laisen
er
pep
##ngar
##ngen
##jahar
sixth
apostol
khiew
##siat
##ple
##qu
##uled
khñiang
hangtei
babu
spec
lamler
superintendent
motphran
jhur
hdr
manipur
head
ampareen
ejahar
##vement
##line
##dal
primary
##van
##ïap
##ynnad
aï
mitar
syngk
##cha
jingbakla
##yrwa
ranik
acco
wanphai
bindo
vin
atiar
##jh
khur
ranikor
33
phe
jingpyns
80
bran
iaki
parabang
noc
##bl
indian
anvc
sarong
palei
parabangeit
kylliang
thangkhiew
scheduled
jemino
citizenship
rti
ti
##ow
##jir
shaba
198
hep
##tah
##aria
tala
jordan
mah
proc
jingjot
mynsngi
sohiong
dri
##sk
##wit
##ms
##paidbah
##fer
nongkhlaw
donbok
mpcc
leag
shikat
body
latiplang
rap
league
##sam
##bol
##shisha
forces
nur
shon
pynph
##kham
isih
nongthep
cement
##ospel
pynthor
pynmynsaw
bet
cam
mawtha
hotel
ele
jingiaroh
trading
nombar
special
dalade
##atai
phatok
jingdie
movement
36
##wel
jinglehniam
##ris
section
##istrate
##ktien
posit
kana
raij
42
##loi
##rop
shait
day
rynsan
##haar
border
sawkmie
gospel
##jia
jongngi
##ative
transp
pyndon
##khlia
neig
basha
shaei
vincent
tan
vab
##athan
waitlam
bdo
len
##trik
sahkut
##ru
##ken
ilekshon
##bong
shkor
khyn
lyngkhot
service
magistrate
pynkyntang
##000
imat
kuna
##per
she
##ani
bymkhuid
instit
manager
nc
pynjari
##khie
##ech
medical
virus
##pyn
##brai
moab
##bir
jingshna
muluk
##lom
##mare
jingpynshitom
account
iuh
##had
##tic
pynkhiah
acting
politik
jingї
shri
jingpl
thabah
thait
fe
mait
teiñ
##tc
land
kumwei
mihkhmat
kontraktor
##fa
policy
##mraw
##apara
pynsuk
mawshun
##wbih
jongphi
##ery
shathie
nongialehkai
symbai
house
transport
puk
rb
rambrai
34
75
myr
py
jingis
amit
##istant
hyndai
ten
jingpynr
ïakynduh
shongsuk
##entil
gra
marngar
assistant
riewpaidbah
cons
kuli
tirot
##tact
##langbrot
38
jentil
kada
jinghap
##rik
pak
pynslem
44
bathymmai
pynst
khlur
contact
mawryngk
titos
class
##shem
##ada
phira
amlar
##pateng
ton
thi
kyndong
lyoh
niah
sir
jingh
##amot
##tik
195
rby
##hem
jingem
jingpynjot
amlarem
##siew
pyntriem
david
jingiadon
maj
bengal
##ohsniew
mukhim
buil
kanaan
mic
patsha
bhalang
hoping
kpoh
pi
##leit
##shit
##sher
addit
pynsngewthuh
administration
jingkam
bantei
lieh
##ore
2021
jingpynkylla
pynher
shlur
jingdum
##gre
das
sengkmie
2011
##ander
##oin
star
##lektrik
zone
jingpyndonkam
histor
arch
##ynnin
jingpynkhreh
##mut
##rak
khunlung
sawphew
miej
lim
kawang
##phna
syiar
##shaniah
##eshon
##vin
jingkoit
publicity
additional
cer
mil
malki
rynjah
muslim
pynïaid
jingiateh
register
armed
mawryngkneng
building
lamare
jinglah
##ession
phla
rej
hooid
kub
##jamin
pas
thomas
mynhynnin
mbose
blah
##buk
##istry
##lling
##try
water
pynthymmai
media
shilliang
##uba
##skhem
jingiai
##koh
jingïarap
nongbri
shikatdei
wa
##gy
##ryng
hebr
scien
pump
bus
##song
jingnang
rnong
##ele
thad
nagaland
##lait
jingsdang
jingiakop
sumer
tournam
it
oli
mary
jingïak
kulmar
process
39
##den
##lion
kitbok
town
kurbah
##ithuh
hindu
miat
##pang
khus
benjamin
positive
tra
lahduh
sanphew
jingkhlad
kwai
##va
kilom
haiing
thap
sutnga
phutbol
shibnai
##vi
treilang
teach
jingtyrwa
90
lakam
chc
nongbud
1000
cm
##chi
##aran
##udui
48
rat
jongno
ialum
##ylliang
pynkhyllem
pynduna
resol
pynthut
khuslai
ken
momin
sik
iashong
syria
lakh
arliang
metbah
rbyf
iasoh
##shew
hamlet
anth
result
auth
dh
rs
ialang
lehniam
commun
##yntiew
ainguh
jinghiar
thuh
thungkam
jn
shuti
##iak
maramot
isynei
41
##bh
naphang
thylli
sngewtynnad
ksew
##shin
lymne
05
blang
ïoannis
##jing
sher
distrik
65
saphriang
kapor
thymm
thawaiñ
certific
pliang
##rc
sngewkhia
##olog
tharai
ss
jingshaniah
liangpyrshah
gol
siej
##ulation
##sat
##pong
jingpynlong
pynjulor
ministry
khyriem
kop
matlah
kynriah
jingïoh
##rope
chan
nh
tong
##kupar
daka
##eter
pynjlan
es
jsu
##dy
haneng
trep
kubur
kup
##urity
khadar
##ther
##way
jingpynmih
rom
##yndon
ïalehkai
saiñpyr
pohiing
ordin
stadium
women
thymmei
eri
baibl
jingmaham
dud
security
pynheh
author
##pf
##pura
thuk
olib
cham
itynnat
ïew
##ngiew
##ational
grace
##sel
kieng
ïam
shadien
##era
##tin
pyngrope
tournament
##sor
kynd
43
koi
##win
jingsah
jingbatai
sted
temple
##bynta
william
aïu
ïalade
##lex
stat
nongkren
syndah
rm
##ules
jingpyntreikam
їoh
mawshynr
##suk
jingpynpaw
corpor
non
##our
jingiwbih
langpih
##hajar
shane
##khaid
taxi
limit
sani
janai
level
##td
nguh
jab
jingmane
edom
shyieng
##lu
mynno
anthony
mis
##kup
##ngad
##yngngoh
assyr
net
##king
shaneng
thiaw
parish
jingdih
leg
asst
mawprem
##pei
##yllei
thyll
pynleit
assyria
rule
shñiuh
##eri
jingkhlaiñ
jingisynei
certificate
aud
sob
##ant
aicc
jingjah
pynsngewbha
camp
hura
##itor
tnum
jingsheptieng
mawshynrut
tech
pangniang
jingkynthoh
aadhaar
sul
##kas
phiah
riat
artatien
trans
shongsaiñ
quaran
quarantine
82
jingdap
##yndit
shisyndon
##istar
##jay
kajih
khanapara
##aleh
jingjied
lynnong
##lly
khyllem
green
thylliej
##ngiang
dohling
01
nes
thwet
##borlang
isa
insp
koidi
car
pyllun
ryntieh
jingkulmar
jingktah
stet
skulbah
##ear
kan
nongthaw
shin
right
prot
final
mep
hash
sharak
sahteng
kharp
kper
limited
6th
##virus
##kajia
isaiah
kliar
advis
sirdar
dus
tu
hajir
nongm
##rih
samaria
skim
eriong
##chal
##ïong
jingtim
kajing
programme
cust
rural
bangla
finance
sobjek
deng
mc
##tar
shadap
##shaiñ
nongpeit
antad
jyrngam
ishu
##rd
maha
diengdoh
kordor
##sal
##kyn
jingiapher
phawa
code
mynshem
intern
##bishar
tripura
bih
##red
artad
tham
job
jingpyrshang
malngiang
coronavirus
jinglaitluid
47
can
##stad
kynsai
mawiong
lumbah
khring
roshan
manass
mashin
smit
manasseh
sil
##bud
khep
kyrduh
jingsam
sneng
##vir
iajan
jingmynsaw
regulation
corporation
dy
##swet
##pur
naki
##tive
jakhlia
rahul
hs
sel
sdo
##oam
pynhun
joit
rajya
phom
elisha
kharkrang
##lop
##roh
nongsp
aiom
organisation
jingjurip
nongspung
##rid
shiah
jingthiah
light
radbah
institute
isaak
bir
##snem
lanot
rip
dusmon
dai
lock
kynjah
khunlangbrot
urban
crd
##wal
##esti
jingker
bharat
sienjam
nonglait
##oboam
lehkmen
bsa
##sad
lanong
nonglam
iaw
##tiang
##mation
inc
##bani
suloi
pei
##nal
force
pharisi
mawsor
300
##sang
had
shall
##bapt
jingkhiah
phadar
jingshngaiñ
synrop
artylli
sabbat
##viron
sabbaton
51
hor
##port
jinglap
##day
sahit
jingkyrduh
management
inspector
aj
op
iohk
##ssa
nangbah
194
tyrkhong
plasti
peoples
oh
hiarpateng
mradkhlaw
mawkynr
pnar
longbriew
##shor
rilum
aruna
peitngor
##lance
lymda
environ
##rihms
cbi
snoh
pynwan
iapher
##ipaw
niut
driver
nda
##khoi
pyrda
infor
world
mawthad
cens
dm
##luk
##gen
contr
team
108
##ktiar
paiem
jingplie
52
mam
##ala
##rick
ksai
rymbui
ncp
census
pah
rkhie
##ft
kiang
##nel
pre
sting
sohp
mawsiang
49
ilektrik
iktiar
rynd
sbai
pyntha
##uman
kamon
2000
jingjulor
jingtieng
jaiñkup
seisoh
##ophy
adc
rules
##nagar
sohtun
saiñpyrthei
cec
str
ïng
##pr
##nah
kharbani
##raishan
af
ltd
##ngit
jingang
joab
jerem
2009
tribal
##ultural
government
custom
##gr
paidlang
bible
66
tah
tlang
thala
##nep
##ster
victor
neigrihms
banteidor
science
arunachal
nuti
rish
##luh
##kular
##ynna
2010
##arter
bseiñ
##baptis
pen
bal
jingwad
pynlip
ngim
over
##ngiah
we
nadong
meter
jingaiei
iath
sboh
##lut
##post
kiban
tre
malu
heprit
bh
person
sd
shira
pyrsa
pynpait
jingpynrung
community
mawthadraishan
##lukhi
jingangnud
46
liber
mawrie
ïas
shal
outpost
1st
mid
##ñiah
jingpyniaid
jingshlei
international
information
lyngkhoi
jingthut
##itting
##sngewthuh
report
purno
##tikna
bis
##rymb
nongkh
mak
bihar
karbi
myllung
ripod
loc
bash
sniaw
online
55
##iz
ngap
arti
mawb
##icket
pyndait
emp
##uiñ
nujor
##ron
##athiang
nongjop
paka
##bari
jingiatai
order
soso
jingshemphang
rishot
dd
ejh
lumlang
nonglamktien
dik
far
julor
lot
nohsngi
##ymman
jamin
gad
kalong
jingit
pyneh
##ism
##ero
shongdor
jingpyni
nongtuh
##dih
basan
basa
##atha
byndi
thain
stieh
jingkhuid
kdar
pawnam
pharshi
jingpynslem
shajrong
##kaïah
majai
jingieid
commander
##te
shadong
barit
kharlukhi
soskular
jum
tynjuh
##para
nongleh
sak
jingsngewthuh
pohing
nohphai
nepali
husiar
pakistan
54
ic
ke
##klur
nongñiah
##haios
ringmraw
jingphohsniew
##mah
ain
jingpynkhuid
##uslai
##down
face
city
sieh
va
vide
##iur
baduk
pyntikna
action
article
tin
daju
nongrah
kristan
pap
##ting
riewstad
196
sabbha
ahab
authority
asha
training
##yllait
pyntbit
##ishon
rick
kput
##raim
ryntathiang
##kyr
##jait
trophy
##phylla
umsaw
nongiasaid
regional
salia
ber
pyllong
jingud
ngam
##she
lehbeiñ
food
salm
umdih
nurse
lockdown
##rup
##20
##ias
##ami
jingialap
jingkynt
jingsawa
buaid
jingïalang
ephraim
aug
daiñ
kba
luk
##chiang
##bneng
shaka
seat
stand
elijah
niang
##ita
nala
##atam
katdei
mynn
##binet
lambok
arts
bna
ce
cell
kjp
īa
##pion
mass
jingsaphriang
contra
pyndik
doll
56
##thep
bunkam
iaineh
##book
53
sym
tyngk
tab
khoit
thrang
##kaiah
gam
hese
lit
##tyr
##khlad
riwar
pynksan
wkh
##wiang
baal
ïalap
kitkhlieh
sngewlem
phria
suiñ
supp
iasaid
jyll
witting
diengphna
##dorbar
ordinance
ioan
pynap
##bunal
lower
kynjoh
award
pynsted
video
mt
paiñ
##nie
##ory
shaw
kob
diesel
turoi
tribunal
host
mlien
und
##par
##niaw
haei
##tian
phara
branch
jingheh
2nd
rngai
jingkynmaw
jingsuba
kthang
anti
kompani
ryndang
jumai
cultural
##kun
phik
jingpynim
kyllaiñ
nartiang
neso
fi
veter
##ork
ummat
inf
bakyntang
pyntieng
kolkata
##suin
histori
##ick
nongrwai
sot
top
shap
##shet
##khap
parad
umsoh
pynjop
environment
shawei
##siden
##enior
jonathan
kharpuri
tuber
nhai
sen
senior
##mir
iohpdiang
##nolo
paham
pynsniew
sainar
sharum
child
local
ger
gran
mum
sosp
##za
##val
donburom
markhmat
khunswet
##lead
col
commer
##ublei
kyllum
angnud
passah
champion
pharaoh
phikir
aka
biej
lp
pil
##sm
##ynbeit
shlei
longsh
umk
jingdonlang
jingshad
charles
bishop
58
dom
iv
rec
tw
baj
langsning
mata
tourist
pyndonburom
##mal
##ñi
iala
kyrthep
mawl
comso
##reen
caa
jacatam
phyrnai
57
85
den
moh
swer
coach
sohryng
cher
lamin
resour
eksam
khyndailad
pui
zen
##ys
##pan
##kiew
##jab
##urm
mawpat
pynbit
##ners
jingsngewnguh
iamih
adviser
##ition
khrong
saiñdur
sain
puta
dait
mcc
sian
##synei
bain
##shad
jingpa
##majai
##ices
jail
ammon
power
nongrit
2008
planning
supply
jingot
bymdei
riewngeit
150
##linia
sniawbhalang
hostel
##pic
bniat
##cell
jingshlur
khrawbor
suin
hatmajai
pyut
control
liberation
mm
tynnad
babun
##trai
indi
inv
highway
kyang
hel
sr
##heng
##mm
##lir
meet
##apung
chur
lambor
talasi
bainong
fund
mudui
said
vdp
##gi
##ain
kynton
ambu
waheh
synreit
paiñkhana
chal
##puh
nongjri
press
phainal
agric
priv
awria
sohryngkham
huri
kupar
##ac
##str
rangli
jingpyntip
kynthah
teilinia
jingïat
exam
##ganj
##sarong
facebook
zenith
##jer
##ïa
nadien
jingiath
mawkynrew
ambulance
dat
##beh
##hir
##shoh
jingpan
banbeiñ
iso
ïohpdiang
##jana
##ficit
##pati
jingpynbeit
suting
ioanis
pad
syl
slo
vol
jingdeng
##adem
lyngkhuh
pariat
jingrung
buhai
liengsuin
jingpynkheiñ
services
ant
fran
bashisha
hano
nangno
sawa
tynrah
academ
##nessar
teachers
eng
##ual
##med
lahkmen
bhabriew
mathaios
deficit
##starwell
gilead
aadhar
ronnie
sonia
ash
jingthep
shadem
##hadnessar
##bukhadnessar
legis
private
grad
basniew
ïalum
jongnga
##nod
nebukhadnessar
kynran
mutlop
kolshor
mynthi
##kynthei
mumbai
98
##cis
##zar
shla
shabong
##itation
##endent
kynbat
pynbam
megha
jingdheng
elec
##ny
##fe
baka
##ail
jingpyllait
secretery
indust
ïingsyiem
inchar
constitution
memor
dip
ev
nrc
risa
ñi
lar
##bas
kumto
##yllon
pynbitar
iingmane
nongthied
ampati
states
dolloi
io
##jon
patiaw
jala
pynbud
poiwir
##sharai
resident
tikna
quarter
aksiden
tyllep
incharge
bur
ucil
##rung
ïaiong
jingithuh
khait
##riah
jingpynd
##that
##artatien
chand
hebru
dgp
##biang
longsem
##ety
phuh
phun
##vention
shallang
asa
ked
meh
uda
##19
##adan
chris
lyiur
mining
narpuh
screen
mccl
jynd
##siang
##tuh
##rhem
lapa
hamar
iawan
##adei
iingsyiem
chec
##ervation
sumo
sopti
jingiadonlang
under
sospon
gate
nongrem
pathaw
##buit
absal
iasnoh
netw
absalom
mir
rif
marten
sngewsarong
iateh
bosco
majaw
76
culture
lur
oid
tas
udei
##nment
##die
jingmang
jingtbit
suchiang
shahshitom
managing
jabieng
ren
##ful
##bm
pynkyndit
moo
region
cabinet
entry
tariang
kerkut
punjab
taw
##lish
saf
phan
syier
batbor
simon
iii
internet
##ology
62
72
diaw
koh
ms
##go
##duid
##bur
hati
jinglam
##born
iapom
registr
lynshop
teiñwell
ceo
cath
gram
##sur
##tylli
##kim
iohlad
iohlum
##lehraiñ
##ica
conf
##phiw
gs
jyn
bynshet
pynsak
jingiatylli
korphiw
williamnagar
toh
xii
##huh
##lal
##inary
iasyllok
gali
tyllai
59
68
67
##kan
##laya
khim
shongshit
tyngkhuh
jingduk
metor
wahduid
##uck
dpei
mess
sia
##sot
##kynti
##11
khuri
shiphang
##ller
jingkut
riewkynthei
pylliem
jeroboam
kopi
gil
litar
tiew
khlong
##ocese
tyngshaiñ
laitkor
rejistar
##bish
kash
pyndeng
pynwit
##ishi
umbam
pynkloi
rashon
jinglum
play
gibe
christian
hss
##thut
pynbiej
jingjngai
polling
mutdur
mukh
tribe
tender
400
human
oc
pn
suid
snep
##sta
##seng
##syntiew
##pm
##jo
khla
khwai
##oloi
jingïaleh
directorate
bsuh
puja
84
##36
khmut
##yllah
##stone
nec
coal
pynbun
sahep
lumpung
debor
apot
dulir
balajied
organiz
kynjat
rights
network
ob
syllok
sylliang
wicket
wapung
##oo
##ite
##ama
arsien
tyngshop
durkhmat
jingshit
ijli
corp
##site
web
with
##person
##has
##yngkhuh
##yllip
nangkiew
synsar
##uson
jingthew
##aboh
great
##urmur
pynsakma
reng
##age
##thang
##ksan
ialong
marc
jingkhublei
syrnod
political
87
iit
ow
##cial
##haiñ
manbriew
banyngkong
##elekh
sloit
check
##ffic
##bus
##sic
jingsneng
borbah
lamphrang
tourism
ricky
bok
fer
jes
jyllei
tor
tal
##ash
##rut
##res
bap
haiñ
##arong
##phet
##akor
semi
##lyngdoh
sniehdoh
64
dung
ler
lin
win
##ywo
khaii
##ulong
barabor
mac
##yllun
pali
ktieh
secy
aplai
synrem
beijot
auditor
94
sylla
##ush
##kat
ialeit
shnat
##tric
pariong
drug
jingïas
##lement
thongni
organising
khynñiuh
volunt
89
##ior
##nit
ïadon
bareh
##oiñ
mask
sngewnguh
nongsumar
pynïeng
##kseh
##areth
complex
sharma
cup
care
id
##yal
##cer
ïashim
pynlang
##yrnai
mihpat
##sohtun
iasuk
syrngiew
mawroh
hindi
##biria
##nology
meeting
##bishop
mik
##pi
##ko
##ember
mynne
##them
##shaid
shihajar
jingiam
jingpynlut
skum
geor
144
kolom
mluh
gen
woh
katho
sngur
kynsh
neg
durbar
roll
taksi
church
ali
dwar
kud
##aiew
pynkha
##kane
##yngkat
pyniar
toll
pynlyngngoh
dca
edm
peter
jingmihpat
sharud
jingkynshew
china
##tainment
veterinary
academy
ñiut
katholik
bj
crick
ibeiñ
md
pbm
sih
shata
phrang
##mati
##ede
aman
##briel
nongpule
khongwir
saian
##uction
lawsohtun
##binus
thiat
agriculture
cricket
mit
##ls
##lative
##haii
rangia
chr
amor
artat
transfor
edmund
cc
nem
kynjri
##stem
mayr
##upara
shitrhem
nongsiang
##ield
ïaiñ
jingduhnong
aireng
pukri
protection
george
##eak
##moh
khynr
kynshew
jingbyr
jingjrong
uni
##uben
pynmihpat
mua
gabriel
siangshai
charge
rejister
technology
emplo
challan
74
##cement
##gs
bazar
##iet
##ana
mari
##phoh
##istol
poll
suit
good
archbishop
legislative
cum
jhal
maiñ
sus
tdem
##eer
baheh
jingbiang
ksan
##cher
jingriam
hynñiewphew
motor
trade
safety
deborah
pistol
##ps
##30
jingnoh
##ities
##yllang
nonglum
iakhaid
##khlam
##iplem
##dcl
jingiakyn
jingdkoh
jingtynjuh
##mawlong
##ynsur
polisi
2007
##estival
biswa
industr
77
festival
##deiñ
nongshim
jingpynt
manik
pynjur
##abil
goal
jingiohi
##june
##cellor
kashmir
04
kner
nob
##jal
##ngab
##the
##thngan
##shap
##sim
pac
##ester
jinglehraiñ
jingkhuslai
khongsit
thanad
traffic
kedar
69
mort
##ila
##das
##phong
langst
langrin
reuben
jingkhraw
pluh
examin
auto
achik
78
ih
kthong
rc
wh
##roit
##kho
jingkhih
shipara
diengduh
##asur
jingiatrei
2005
administrator
shibynta
phyrngab
million
jyllop
screening
lapalang
jhalupara
71
red
tduh
twad
##len
##ñiar
khwan
khleiñ
khluit
manbha
laitk
jingthang
jingsngewbha
jingwanrah
govt
bahaing
guard
kilomitar
thapniang
golf
miss
farm
umkiang
website
akar
bik
cur
nic
##mang
kijuh
pynbaptis
arspah
kyntur
containment
kharjah
khongpong
noah
jingiasyllok
81
gor
puson
##ction
##myntoi
##yriem
shini
##estine
jingphah
phasi
phud
umsh
confer
##than
nongshongshnong
shangpung
nongioh
##lyngngoh
morning
teiñwel
pynwandur
##yllipmat
bjym
rangialehkai
kharjahrin
edit
gur
kshaid
sma
##lun
##ieit
##jok
khyllah
##amar
##thma
kynshi
iohthiah
weigh
lumshnong
pyntngit
ïapom
iatrei
stephan
pynmong
army
sympat
commerce
btap
##suiñ
##ts
laya
thurmur
pynkulmar
nongpynim
juti
junior
97
rd
##eal
##bul
##hath
##etre
ngiah
neep
shongman
khyrim
iasoi
enfor
from
##form
pynphriang
chancellor
transformer
aap
ale
domin
ej
gom
kg
##usi
jingartatien
##then
phase
shitaiew
snar
##rime
rally
add
kdup
pawkhmat
contractor
asher
doloi
##olic
##weng
##que
jingpdiang
jingpyniap
umling
drai
jingkhmih
nongshken
maloi
maieid
benami
linen
tika
bethan
negative
ahi
ipc
mes
##blang
kas
khum
##ukor
maruti
prod
sngewdei
##tiphik
ehrang
jingtem
gog
workers
nongiarap
ïalumlang
etc
shatri
kyndang
mec
pyrthat
pynsleh
wahka
jingsngewlem
judia
khristmas
libr
interv
plastik
63
##kos
shun
nongsharai
malik
prie
jingbymman
jingpynduh
emri
##link
jakpoh
herod
first
dhs
neepco
3rd
jaw
lung
tngen
wr
well
##rew
##fu
haw
##ord
kher
nongri
##lius
jingslem
jingsarong
islam
injek
lamkhmat
baibam
anglong
mrssa
biria
treasur
jingbyrngem
enforcement
iph
sbi
tel
ul
##hael
##ull
brai
jingkem
are
system
jingpynlait
chen
##fication
ianujor
otsher
jones
pynjahburom
electric
mortem
##tiphiket
eit
ñiah
##73
laka
khym
longk
##kalang
market
parking
bhavan
umpoh
jingtlot
##bian
nongpop
##nongrim
##asta
hebron
sikkim
##ishian
##shaphat
ret
rak
sid
##kylla
nongot
##his
##yrpang
chairperson
jingkhaïi
ñiewbeiñ
##dsta
elector
resolution
700
best
diang
jyf
pli
pers
##yier
##dew
##ze
##vk
##nee
##nesh
donald
pynsaphriang
imp
##eaker
ek
one
reh
sede
vive
##nath
##dam
##deit
baneh
king
##anda
##kad
##kash
laitlyngkot
def
dujok
pynlwet
alph
pahuh
paradoh
draibar
umpohliew
ula
prem
samlin
kharkam
jingtwa
kurkalang
kjdsta
2006
hynriewphew
liengsuiñ
atm
jehoshaphat
eleas
majistor
ialumlang
rmiang
library
interview
alex
cand
ioannis
pc
lal
phylliew
syiemship
bymhok
shymla
##mihngi
jingiaknieh
minot
agency
jingpynkup
politishian
conservation
sikret
anton
auditorium
kharkamni
09
61
79
88
abi
bthei
bho
wil
##mus
##jit
balai
nah
pynit
##ynrih
iabam
sngewhun
sanjay
khliehduh
jinglyngngoh
kylluid
pyntngen
seion
rongbiria
sarma
jehu
sertiphiket
lukha
colony
english
pollution
khymdeit
##50
##bil
##ombor
lehraiñ
##lley
khyrdep
licence
##gree
sakma
catholic
rum
pynkham
##uter
##khand
##barim
synñiang
bymmyntoi
lumdieng
pynjan
adh
##kordor
sign
iohkem
stre
editor
73
86
twa
uss
##po
##pu
nongj
sngewkmen
that
##aster
jingkhia
tyrp
##ngain
dig
sunn
##rymbong
antonio
ibit
ve
##iot
##buh
nongmen
kyrdoh
lyngngam
sngewtynnat
sngewsynei
krenbeiñ
bhoirymbong
center
##wood
##jiju
ahas
rapsang
600
cap
dkoh
fish
jat
jwat
lep
tv
##ca
##pe
##kra
##athar
##utia
jingiasngewthuh
##lehem
iingbishar
degree
pyniakhun
bethel
bye
history
iathoh
mawbynna
games
renik
kudam
conference
dominic
gide
sbun
##lien
##out
##kohnguh
##ordin
naei
pynї
khyllipmat
##ade
khambha
umpl
khroh
nongkynrih
nehru
khyrnit
judge
khapngiah
##chamati
mich
adhoc
gideon
lip
ner
sung
##sieh
jingweng
rijiju
klun
emer
pynsngewsih
##dekai
5000
mordekai
myrthong
hashen
bashyrkhei
msp
pam
sdien
baar
##ynran
shiwat
##shngaiñ
sahdien
##bhah
dro
amer
nongkhaii
pynjynjar
duitar
jeri
reserv
goyal
plant
jeremaiah
duitara
gr
ichamati
##ound
##gation
##byr
naz
##itri
##khen
shahjop
jingsngap
samson
coordin
rowel
uttar
nongmensong
83
gvk
klang
klong
not
pip
##ela
##sbun
##ke
kheit
##inal
mawph
jingsep
judas
disaster
kharsyntiew
nongtem
mawthabah
candid
99
along
kes
neng
piat
wjh
shilak
##ymmen
kyraiñ
jingiakajia
martin
janata
jingïathuh
econom
sslc
resources
nemsniew
jingiakynad
95
##map
ïaw
##aring
##nela
##dajied
##sian
bynniaw
park
paramar
sohkh
kharlyngdoh
sns
pylleng
lammihngi
resear
mineral
bethlehem
pilat
player
chennai
electoral
paramarjan
06
##iya
##dge
##jat
haman
rangdajied
mahara
umran
##ics
bani
laitlan
pynjem
housing
fenela
memorial
eleasar
02
1tarik
bil
knia
seh
ward
year
##ward
##dom
##10
kajong
pynshah
##ison
aid
wanniang
pyrman
arsap
lyngraw
##oper
mawnongrim
jingiakob
phewse
dumbur
teacher
personal
registration
07
abr
lu
pyngk
ñiang
##pen
##ato
jakar
indo
indep
bilat
deal
probin
jingiohipaw
kaikhlaw
nonglute
takraiñ
khohsiew
esther
jerikho
research
96
dra
duma
klim
sier
##eth
##ib
ïaleit
badei
sho
khriat
marwet
phohsniew
mandal
jingthied
jingtest
##rear
byrthen
bomb
wahkaji
tyrpeng
snsbh
jakarieh
awa
fil
tdong
ïais
ïashong
pynithuh
ngon
##ynrei
##khmah
arrear
##ley
syiemiong
hangto
##rims
poitri
rowell
nongseng
iaishah
lilam
diocese
jingbuhbeit
##saia
umdum
umden
laitkroh
treasurer
cct
hos
mhis
rss
##kod
##ington
khop
nongtr
iawer
kyrdem
umkhrah
form
bangal
basket
balaam
compound
worker
hamsaia
michael
jingïohipaw
wkhd
his
kno
puh
##dait
##17
kadiang
##yni
iakane
truck
##mareh
##thap
hearing
##kjat
syrnot
jingiasoi
jingpynkiew
crpf
mepdcl
greater
800
cel
mur
math
tes
##tung
##ring
haïing
jingtap
shniuh
mel
sngewlyngngoh
umm
ryngkew
pynkhie
insur
teibor
gener
bakur
nalorkata
purew
jingshalan
pyngngad
mynhyn
sinai
massar
cctv
##hur
##32
himan
mawm
peitkai
jingïadei
raliang
behdeiñ
joshi
jingpluh
examination
umpling
sungoh
blo
ix
rngiew
##bel
##74
nongshah
##iewspah
##khraw
wanlam
ril
lehkai
sawang
kharkhana
##sakhi
tymp
miller
takma
plastic
marcus
4th
92
bel
fai
what
їing
##uf
##bna
##12
lask
ïatrei
hala
##talang
##enue
##rian
mart
tylliat
umtyr
bymngeit
khnai
pyllaitluid
khonglam
boys
khyllie
maitphang
rben
cmj
insurance
08
god
gsu
iem
rgh
rock
tyn
us
##eg
##sut
##ben
##ument
##shtra
jingkor
stone
metïap
pyniaidkam
adam
leban
jingbamsap
syriem
31tarik
kaiphot
patharkhmah
##likeshon
##ridge
valley
christ
dha
epic
hfu
lymb
sod
##cing
##mo
kila
shatai
daki
mynleh
##oke
mawt
pulom
kynting
iaknieh
ksing
parasnam
jinglongmraw
found
##jirem
nobel
abram
nongtraw
cle
hand
shynna
##oni
nathan
khem
##mara
richar
thah
ranee
aplikeshon
konsti
khongjirem
revenue
governor
pynïaidkam
championship
bethany
vivek
rilbong
fam
##ye
##ger
##ynnat
phad
paj
pynkmen
bamon
kharum
batskhem
amal
embhah
ingkhong
jingdonkti
pynrit
##narphna
neigh
##tonment
kenne
##thenes
pyngkiang
probins
richard
hit
nylla
thiang
wir
##raph
##ñium
##bet
##15
shop
##itee
damas
##kay
markhap
mawdiang
nongsam
agar
divisional
rympei
presbytery
lynñiar
pmg
mahadei
hesekaiah
himanta
sawangka
rnga
##put
##kem
##bridge
##ngia
##atang
philip
##oir
arun
danggo
pros
jingsma
jingpynshisha
bymdon
batta
satar
judic
subject
sikh
sirdarship
jingitynnad
micheal
america
jri
uto
val
xi
##rwiang
bagh
mynbarim
##khlem
##liff
##apur
##mali
pynkoit
lumrit
nongshna
sima
guest
shekhem
ajywo
midian
help
confederation
uniform
renikton
ummulong
lebanon
des
gir
rhem
badno
##nest
pata
jingmudui
synag
nongialeh
ksiang
pynshit
nongrang
motion
pyntyllun
pynïa
monlang
pohïing
khanatang
mahila
langstieh
battalion
synagog
biam
dec
iw
tbian
##wait
##gal
##dat
##35
kah
jingñiew
kitrwiang
arsut
##inth
mawkordor
jingsmai
shongwai
western
iasam
ml0
sosthenes
##sati
tablet
suiñbneng
longshuwa
denis
tawiar
gh
hur
lor
sq
vec
##uli
##ruh
kale
commitee
chet
iapynbeit
lutksan
pynïoh
leilieh
basaw
book
tyros
kpong
mamla
gradu
evm
addl
lumdiengjri
pynjanai
emerg
sodom
dk
hon
liv
nb
od
ruth
reshon
sud
vc
##sun
##hra
##rot
nan
pynwai
dal
prom
sngewsh
sying
##ily
jingmong
kyntoit
jingthombor
joe
##regs
baiñ
jingpyrta
khonglah
tynring
soil
jehoï
bharatiya
##rymbai
ejhd
hesekaïah
khynraw
pynkhamti
kharumn
aa
ine
kñi
##tang
##tis
##mel
##bn
##60
shut
nongtalang
katjuh
iakh
##kaba
shongnia
nangtei
sahnarphna
sawspah
kharsati
##late
raja
15tarik
nepal
##tapur
bashatei
cantonment
volunteer
vehi
kharumnuid
bon
gst
smat
kap
balat
sham
##yment
jingkah
lyngkor
marpoh
##phylliew
jingban
nangmih
abhi
allan
thanat
371
robertjune
##bhur
jingkyntu
tohmet
alexander
bangalore
behdeiñkhlam
3000
jha
##uaid
##nor
##ïeng
khor
mawngap
jain
metric
kynrei
##sngiat
syngkien
pynthorumkhrah
hamletson
##eracy
organization
but
mend
nok
##cb
##ious
kalah
ïat
nath
##tant
shat
shalor
nonglang
##yngkhong
##ukta
jingkyllon
julius
pynbthei
ladrymbai
sanad
##sak
iewmawlong
pansngiat
abim
goa
##uali
iashimbynta
mawpud
kherub
maharashtra
mong
mom
pyl
##kg
najan
dorphang
madanr
##cise
jyndiang
weighbridge
mynhynin
mawmluh
cate
muh
mlp
nara
puit
sri
session
##dop
##muri
##fc
##jin
##ïaid
barid
ngop
##utta
shir
##mart
pyrd
mawbah
jingthrang
chok
jingkhie
##ishna
2022
abner
##apher
model
rajnath
engineering
shanmu
fire
frontier
hadrian
bike
persia
laskeiñ
kaleb
abimelekh
##gory
kaw
hajrong
khara
iashem
kyrsiew
##uph
jingsangeh
##phra
born
shongk
jingjaboh
pynjynsur
mook
jingrai
nongbet
pyniakhlad
seï
members
shilynter
bahalor
1971
aïom
shallan
basketball
baridua
dto
##synshar
##ida
##riew
##ky
##14
ïabam
##shat
paidbhur
lehbha
marb
mihpaw
jingpynj
coming
skill
drama
ksaw
bampong
##nergy
diengpyn
jingïaroh
##khuit
korinth
lokay
nombor
bishn
techn
task
gogoi
neighrims
emergency
seïon
93
cas
dhan
jylli
tien
##hep
##pot
##field
##vt
##ney
ngait
kamrup
may
maweit
iathuhlypa
nongiashim
khniot
bamut
jingteh
plaza
fci
lynthem
sohan
institution
kohli
gibeon
owners
longkpa
fal
itei
ji
jngi
my
sliang
##lieng
##bs
band
##iere
shlem
kumban
khalai
thut
##mied
jingïalam
agatha
##vey
kadaw
ahmed
yojana
prevention
jingkyntait
farmers
independent
marbisu
03
dng
hol
list
mister
їathuh
##lumar
##luit
##pon
##bei
##tala
##lian
##light
##tiat
##shkor
phin
phawar
bilor
jingïaid
moon
hiarthma
jingbymdon
lakmen
phetwir
rynieng
badonburom
bolero
kilometre
hashwa
torti
celestine
damaskos
muhor
dup
##seh
##ius
jingbah
##itional
kynsha
pyrtuh
shimiet
pay
sngewrit
jingpynlip
comman
sati
dev
deb
andhra
mpda
mpsc
khatsaw
##ratis
news
lou
1972
jingpynrem
pius
mepa
mahajon
dmho
grant
category
cid
hus
mh
mgn
sister
##heh
##non
##mynt
##bniah
ïawan
hajuh
halade
daloi
aibor
barieh
jingknia
marks
jingburom
umlyng
syntiat
pynsan
pynsawa
klep
##nesis
riangdo
ryngkhat
foundation
madanrting
##uphratis
jynr
nit
sit
wieh
ïuphratis
##skur
##yo
##pd
bapaw
kip
##ati
##shen
##ina
jingpynïap
jingthwet
riewshim
sawkun
ingsah
excise
##kharaiah
bangeit
2004
2003
prasad
nongaplangbrot
bishni
open
tyngkai
amalek
lokayukta
misteri
tatha
wo
##eon
##uary
##swai
##gc
##dul
myntor
khrup
sawian
##shillong
##ube
phaiñ
jingïada
adhaar
jaiñphong
pyntuid
nongshet
khongjee
jingphet
ryngkhlem
ernest
##birth
nongmynsong
umsohsun
bapli
nazareth
hosia
umtyrnga
family
pmgsy
judicial
tathag
ekh
ent
fri
ili
squ
toi
##ku
habud
##eser
##mael
lyngwa
##ynnai
bunbah
riewb
##imal
##seo
andrew
mpuf
133
ijot
triang
bench
mizo
tyllun
1948
rifles
ulfa
graduate
dkut
elektrik
smart
tiak
ïuh
##tong
##kput
bay
kate
##sting
##tre
jingiathuhlypa
khuda
tower
cho
muktapur
provin
synrai
byrsit
##khiang
sib
lawmali
bridge
simeon
armet
administrative
bengali
##ological
jingsahkut
transfer
liew
luc
pvt
zon
##ving
bashan
lan
jingda
pynlah
##tali
##khel
arab
part
kseh
nongkseh
dier
120
iatylli
talang
shadkmen
nongaibuit
golflink
chokpot
riewbymman
cb
cine
gang
jul
myng
roh
ujuh
##gg
##keiñ
hari
jingieh
naph
khi
nongshad
##tih
hir
shahlang
khambun
umng
sahmiet
thaba
kharmal
dawbah
tamil
chyr
room
jingshet
jingroi
covid19
bakhlaiñ
vijay
traditional
##atory
womens
hopingstone
channel
liter
investi
wapungskur
paliar
draft
3ngut
ru
ww
##mad
shyllong
##aman
##tho
##ril
jingiashong
kitkhia
marbud
jingsyier
jingbthei
kongwang
counse
##eek
matrik
jinglehkmen
lead
republic
kordit
asia
ganesh
kerala
kyndiah
bhu
##struction
awaken
proseshon
ngaitlang
phaiñal
4ngut
kun
muster
##wu
##hya
##tta
##num
##kot
haing
##yrkhat
kumtei
##othi
barato
jingkhap
max
umtr
khrui
iapoi
##bria
nongbuh
##lication
laispah
jonah
bahakhlieh
pukni
sohpet
rehoboam
indoor
film
kharmalki
awakening
dyngkhong
klass
lg
mfa
##nata
##16
kick
hateng
##khoh
##masa
phriang
jingpynsngew
ksam
laitkseh
snait
rao
##ynsai
sebul
lyngkyr
crpc
ishmael
iuhroit
jingïakhih
##genous
penal
longshwa
indigenous
candidate
pajih
friday
energy
kni
prime
##lym
##hu
jingniew
##yrpi
##unar
##awl
##rip
thwei
lyngkhuit
marsien
##iki
thapa
survey
##snai
lea
prize
pradhan
income
cinema
ath
nr
rona
##card
##bym
##bot
##bthuh
##75
pynlehraiñ
##thied
kynad
broth
kyrni
arta
##elist
jingpyndon
##use
klob
diengsoh
dewïong
##itter
11tarik
mylliemngap
jingiapait
smb
hynriewspah
neigr
##musiang
tathagata
naphtali
snaitang
bip
dsc
їeng
##poi
##diaw
##mc
lach
ïasaid
##ating
##ates
##isaiñ
##omi
brol
##sin
machi
traishnong
june
jingjyllei
langsoh
iingjaiñ
riewblei
##mula
kharwan
nongkynti
##laia
lamwir
30tarik
karnata
iathiah
##iuma
computer
27tarik
##laskeiñ
gujar
swkh
rkhiebeiñ
file
rifle
galila
galilaia
hsslc
employment
industries
whatsap
technical
enter
langsohmoh
det
gas
live
pong
rome
sbak
uh
##otion
##90
kilan
kilah
jingbud
##yntiat
pynsngap
satang
jinglyng
joash
jammu
jngum
jingrisaiñ
nehem
albinus
workshop
pynmyntoi
kris
superit
iadonlang
synnia
thadlaskeiñ
legal
galilaïa
ay
bsn
elek
##east
##lynnong
##ukh
##few
##18
##ohi
##table
##ania
##erjee
aiz
##shwa
##siah
jingky
pruid
mawla
##khan
sample
phyll
synjor
lumpar
tamabil
himalaya
##shiang
nongkwar
##rangbah
warlar
scot
symboh
##istance
pynthoh
appoint
##tification
##quir
campus
silchar
children
francis
mayrald
curfew
martle
kennedy
bsnl
warlarpih
chang
egen
ib
mrs
nsc
swet
tian
##tyng
##amy
doner
##eman
longtrai
iohkam
thor
jingialum
jingiar
sngewskhem
jingther
convention
hangtai
relation
nongsyntiat
jingring
saitsoh
notification
saibon
hynniewta
sari
salon
times
timothi
grand
umshyrpi
4tarik
jad
sl
sard
wine
##lok
##her
lawai
##awang
kyrhuh
jason
phy
jingbei
jingmap
##estar
construction
surokbah
##yntem
jingsngewkmen
rakhel
adong
##buli
khatsan
iathir
mile
##yrkhong
sekharaiah
enjin
lyngkhai
juki
lineage
jingphla
airport
jeremaïah
auguster
mawlynnai
mukhla
mukherjee
girls
loukas
husban
karnataka
whatsapp
aizawl
5ngut
hlc
ir
ita
jess
nf
##uin
##bwa
##bution
##38
##ïew
baki
##eil
hasa
nguid
khand
iohnong
master
jingsynran
##phniaw
jingbeh
condu
jingtuid
beer
most
jingshukor
buam
resort
kyiuh
nongaiktien
factor
staff
syngkon
syngkli
bashaphang
pynstet
talent
blood
mendip
umngot
umtrew
lyngkyrdem
superitendent
lumparing
conduct
cro
ever
igp
nos
was
##akhlia
##ower
##pha
##pep
##dra
##xing
jingat
##urant
khath
iabit
##tice
jingkyntiew
ymbon
makri
mardih
jingjylliew
khriam
sawbthuh
jinglyn
ingdorbar
kdiah
pleng
animal
jingiatiplem
khatar
northern
250
lehnohei
nongtung
nongtdu
sabut
udf
sadar
chakra
selection
sidon
##sakhiat
riewshimet
egenstar
saitsohpen
hm
jit
jal
ntc
##df
##65
dasakhiat
##ise
##cture
mali
##upur
pran
phraph
synei
pynkohnguh
##miej
khrum
che
instr
adm
beat
##hims
shaiñ
elias
##board
free
down
khaddar
babe
sadok
bashathie
snohkti
shalyntem
##joy
genl
##jalee
mecel
retur
pylleiñ
narayan
pyrdaiñ
gujarat
mawlasnai
phraphew
issa
jsm
tie
##wul
##hoh
##iai
##dep
jingle
show
nalade
##taurant
nongum
thlen
traiñ
wankhar
shongkai
##olar
sten
ïingbishar
lapbah
13tarik
restaurant
nongdhar
iamir
pale
prakash
profession
your
##hadad
jingïakynduh
cherra
mikah
ccib
pynitynnad
reserve
umlyngka
jesse
5th
ep
gua
hom
tat
tata
ven
who
îa
їak
##abad
##37
lawan
ïathiah
ngaiñ
nongiew
mynha
##khep
jingpur
jubile
sngewphylla
bunjait
##matlah
##olution
##asthan
kohath
19tarik
amos
match
jingïam
ray
blok
anjalee
pyniapher
saiwul
sarang
nine
krung
syngkai
pynphong
dairy
chyrmang
sebulun
neigrhims
lachum
salonsar
mendipathar
jubilee
equ
nusi
siaw
##ace
##siej
##dsa
killing
labor
hajong
##kap
mall
jingbymb
jingpynkut
langk
##mental
skud
assistance
chem
wahing
##sniang
jingshyrkhei
anne
kjbwa
malai
sms
##ganathan
markylliang
##samthiah
kitboklang
mcs
resource
indira
grade
chandra
jynthut
ejnc
stream
baghmara
investigation
instrument
bla
cal
cliff
ee
got
gath
ration
tait
##igp
##bes
##62
ïahap
shel
khlei
iadih
barak
##noit
jingkyntur
artik
lyngkhat
##opha
kaliang
kharmaw
##khatduh
exit
jingbymlah
mpf
synrang
mondal
tynruh
shangkai
##thohlieh
rajasthan
houselist
sadon
application
jingkamai
##jingit
campai
empower
twitter
residential
##sotti
##hury
guahati
asian
byll
hei
mn
mtc
ria
slip
uban
##ect
##kah
##vit
##21
lashem
ïasoh
hakhlieh
shyllang
##laganj
##shing
barna
medit
##inar
prum
shimpor
store
##hary
kharjana
wahkhen
kyllut
baieit
such
hakane
respon
nov
jingiapyni
angela
nongdih
##wari
iaryngkat
1973
myrsiang
##adav
jingïakren
jingpahara
mawdiangdiang
dngiem
wahingdoh
barnabas
even
fre
kram
les
mishon
plate
raiñ
tara
##yc
##nad
##mitar
##40
##39
bakhatduh
hal
jingrah
kyrs
maki
jingpynia
tnaw
choir
10tarik
scholar
baieid
##ksuid
life
territ
jingshimkhia
theisotti
jingjahburom
operation
contract
sianti
gorkha
areas
coordinator
economic
shongknor
professional
mediter
91
kri
pda
rot
rngad
senti
wiang
##yp
##ioh
##їi
##dum
##jngai
kais
kiba
##eij
##ated
khutia
##thiaw
##shy
mawta
shimei
sngewtriem
pynkyrpang
sohbar
jingdiah
pynkhraw
pynshoi
read
kynrup
rabha
jingaiti
nongshnong
agre
saipung
myntdu
darrang
cancer
german
sainpyr
morningstar
pipe
sohkhlet
kharwanlang
enjiniar
2ngut
bpl
duty
eac
pt
sss
wang
##ker
barik
pynnoh
##ancy
shajan
bahok
##yllaw
breaker
##siness
jingpra
march
sngewlehraiñ
##usu
##rene
jingiapynbeit
nongpyniap
##riage
ephes
pyiar
literacy
iasnohkti
gibeah
defence
dealers
www
machine
appointment
sentimitar
mawtawar
agreement
full
iss
loit
nir
pine
upa
uriah
##oll
##yt
##49
##85
las
##hari
shrong
pyntr
kynp
##sil
jag
pyrem
##iemadan
##haiing
distribution
pynjia
round
pancha
boas
tyrpad
2002
eden
balak
mush
peon
pynkupbor
##yana
radio
advoc
sinha
headqu
jinghuri
esra
jingjahthait
tasam
mayral
iphieng
mspcb
casual
zonal
factory
campaign
ft
jhar
oper
stan
yadav
##tu
##vers
##ïaiñ
##ynñiuh
ïala
shrah
shond
##tage
##yrngia
##shitom
##wali
jubi
jingmlien
##irit
khnium
chow
125
heart
minor
jingailad
seminar
24tarik
peace
laws
nongdiemadan
shetkylla
kropha
pynhiarkput
paia
##siewdor
1947
mynnor
mynnin
jinglamler
gomer
alphred
vehicle
##quiry
shondur
adon
dia
ips
ugc
##lep
##wi
##if
##niap
##meng
kal
kiren
ladon
##lag
ngiam
##khor
aids
pyrsad
##raj
sac
##ynniar
20tarik
jingbieit
##och
rail
##dpo
sanspah
ameri
##akhi
jingïai
plied
nehusu
khatwei
northeast
khlaiñbor
saleng
revolution
gnc
jebus
punkhun
young
pynphuh
jingїa
mynnyngkong
drugs
knock
shanmuganathan
issakhar
2tarik
5tarik
rhah
ver
##oda
karim
bahaiing
lalot
jinghi
jingsiat
##arim
najrong
##kher
##ale
shahjingit
mas
marpyrshah
##ather
shongduh
jingpynhiar
##eston
riewsniew
kharbuli
klumar
parabriew
email
iewryng
nongput
exper
2023
##ranian
ramhah
17tarik
pynthud
josaiah
josaïah
herita
gau
shiloh
ishyrkhei
jehoia
you
phyrngap
riatsamthiah
august
tympew
bishnupur
mediterranian
ephesos
advocate
heritage
8tarik
cag
let
mesh
ruma
rkhiang
ïong
##py
##reiñ
##27
baph
baphylla
##ynjor
jinglip
khnoit
##basa
##isation
##adab
##idar
jingpoi
ymdon
lyngs
maji
paro
##ssar
jingkhyllem
dulan
pangnud
##ason
##gaon
sunday
shrip
##sheba
living
promotion
sardar
bcc
cp
dutta
gan
jlan
jawa
rod
##ryn
ïasiat
pynleh
khñium
nongkam
##under
##khla
marriage
##tration
phalang
phul
pynbuaid
langrut
spirit
dielang
nongpat
export
mohan
syrti
21tarik
ñiewkor
markos
nursing
mispah
audition
peij
umsawli
jinglamphrang
gilbert
phudmuri
iwtung
khanduli
jingbymbiang
panchay
amerika
iran
pub
ticket
vs
##lynti
##khih
##97
##25
baa
##ongsan
##eiro
jingrem
khra
##ena
longdien
##ulom
trust
bhatta
disc
pynbynta
ksang
off
##thad
##berb
kharb
pynjaboh
dey
dewlynnong
proberb
khate
namdong
tyrso
syrtap
nongiaid
##ningstar
time
hanan
jinglute
affida
niewkor
secretaries
##metor
pakynt
dmr
sotti
jingiather
messaiah
ferd
industrial
sedekaiah
ñiangthohlieh
ïatreilang
jingkordit
choud
lyngskor
affidavit
syng
tyndong
tbn
##het
##km
##kon
##13
##ngah
##ynald
ïalong
ïapher
hab
nas
khawai
lehsbun
##led
disp
jingpynjari
##eder
lummaw
##aste
councils
amita
deli
##reel
exc
komishon
blue
##dant
1873
abdul
haryana
kheiñlang
pynias
kaiñ
lawbah
sarah
self
make
mookhep
jesreel
messiah
sedekaïah
signboard
sngewshyrkhei
jingkhapngiah
ninebeh
jubili
3tarik
amasa
bob
dim
##ghan
##xed
bajur
has
hana
habar
bada
shrieh
##umsnam
##thup
##sir
medal
distan
skei
kongthong
riewsh
riewkhuid
jana
nongsaiñ
panmap
nongpluh
##ramer
business
elia
kimfa
suppl
taïew
officers
pathaikhubor
jyrsieh
raju
##beth
##bati
##yanmar
kilometer
lambokstarwell
infil
jyndat
asherah
jharkhand
railway
end
lup
myanmar
rait
tli
wit
lasar
ïaka
##ature
##ned
dav
##baki
##shaw
hiv
thyllaw
pyrdi
jingphiah
lynga
mawlyngk
khlieng
jingiania
liangsynshar
##ols
umwang
pynkyn
##ustine
iingsah
conve
spaiñ
garoland
matsiewdor
jansing
leilei
iatip
160
notice
music
mawsmai
compet
##rain
khylliap
##endro
krishna
ground
##garh
nongleitkurim
roberts
ephod
constable
##vind
jingiaiaid
##graph
##sheth
##tyrshi
teleph
fisher
july
empowerment
jinghiran
iewrynghep
bhattachar
ferdynald
iwbih
mish
ns
swa
siar
tieh
##tara
##jem
##bed
##28
jingnam
nadu
sharai
khaiñ
shnongpdeng
mahat
prat
phramer
kynther
bymkohnguh
nongiada
##essor
phaikhmat
wahia
101
april
mow
1500
jingriew
nongbam
course
14tarik
jingiatyngkhuh
khatphra
##roy
2001
saik
saiant
remdor
їakhun
integ
29tarik
hamath
##hood
mawphan
pynphieng
elect
archie
jingiaishah
golden
silver
ïasyllok
standing
sylhet
gilgal
bholaganj
digital
rocky
faleiro
wood
square
nusip
kynpham
infiltration
lasaros
mahatma
7tarik
9tarik
clement
ese
kng
lud
rata
sept
sdpo
tele
##leng
##cen
##pait
##pud
nad
shabi
thess
##shna
brah
kyrngah
jingiajan
##stru
jingkuman
jingkynrei
##bormi
proph
paki
jingiw
umsyiem
umsiang
##nohkti
iingdorbar
pynsuba
ïohk
easter
##shiliang
pyllut
monol
16tarik
mangi
mines
23tarik
##jain
##arius
##othy
jehobah
erwin
sheba
##shemphang
lakhon
afghan
##ñiot
goalpara
imphal
premier
pynïasoh
nbcc
commandant
phyllung
kharmawphlang
baphyrnai
tliw
convener
wahiajer
din
guid
kei
zero
##ef
##sen
##yut
##we
##nic
##rkhie
##mil
##fo
##29
bata
##eisoh
hak
jingap
naomi
khmied
dadeng
nongtih
##iewduh
iakajia
##shand
patlun
jingiakhaid
jingkynduh
phot
phran
jingbat
jingpynthut
manstur
ste
shymp
chnong
metre
bio
bakyrpang
126
forei
bastad
chiefs
shohdoh
youths
22tarik
28tarik
bakhlem
dienjat
pynthame
kejri
sainkupar
buria
suidniew
alphon
nongjngoh
dhaka
ïateh
##ualification
brolding
mawlyngkniap
afghanistan
mansturdy
hylla
mok
##dro
kaba
##halang
done
##upta
proper
neda
khunbynriew
sngewt
umjer
jingju
khnap
stem
iakop
pynsa
ïohthiah
kharnai
speaker
budlum
iaisah
lathi
##niuh
byrtong
hakaba
nongpyndeng
nongpynbaptis
liengbah
##drf
songsak
khohreh
uttara
this
##iakim
tongkhar
##sora
victoria
nongkhrong
jingpakhang
residents
messaïah
syllabus
ïaishah
sudan
nehemaiah
nscn
mushlia
pakynteiñ
telephone
kharnaior
az
ik
ithaw
jli
nik
tista
##sella
##tep
##nei
##kidar
bakha
kiri
laing
##yngshaiñ
ainam
##ope
maga
marba
disabil
##old
mantri
suri
sohk
sohlang
kharsyiem
##yntien
##itten
moham
pynriewspah
lib
cachar
nongpynïap
26tarik
sabon
kajia
kharkongngor
jingphylla
pynshongshit
iohkynti
tyngkreiñ
##cherra
written
capt
minerals
pynshahshkor
generous
aay
mombati
scott
lachumiere
houselisting
magaz
amar
hesh
hoid
kk
krang
meit
olym
sleh
swat
two
їap
##peit
##dot
ball
bail
kidon
##atei
khñiot
##thew
thub
barli
wanswet
rikod
jingsuh
jingsoi
##ilbert
umdoh
thalaiñ
lump
riewniam
riewkhraw
sohsaw
sohphoh
ïohkynti
ïingmane
khliehtyrshi
jingpyrkhing
##ksis
jingiathir
ramah
mawkyn
##bosheth
rajiv
jingpynkynriah
missionary
menshoh
merari
##pcr
rbsu
jabaiñ
hadad
sihon
jingkyang
scholarship
kriket
monolith
kejriwal
laingut
thubru
cla
hymmen
kraw
mss
om
sis
sbuk
##spa
##reng
##kin
##80
##xy
##ngop
##aim
nongmane
##shun
triem
##dab
happy
##sive
bynnud
jingkyndit
mawlieh
jingsop
20mer
##ssaiñ
ladei
pynsep
sohm
##kiba
inning
bakshi
pyntlot
byrsat
25tarik
##rated
##eau
syndet
nios
##bek
jhdu
jingpynshoi
donboklang
infra
##katei
wild
christmas
kngc
8th
ait
akas
bd
bim
kw
kendra
miaw
yu
ñiuh
##ifer
##dup
##rap
##bra
##nger
kiaw
laong
##rig
kynum
shijur
patok
jingkdew
lyngngai
marka
mawdat
##khara
samrkhie
jingbret
jingpynbor
jingpynbha
umth
satlak
jingtied
paragraph
##mawleiñ
##akah
jingshahjop
bakongsan
anna
percen
call
jingiasuk
salit
hermon
pynmeh
politic
roads
sharing
musla
##dry
accession
mreng
professor
khapsor
1997
1980
##tics
jingiatainia
commercial
invitation
gomor
lymbung
moonlight
jingiehnoh
suchen
heshbon
olympic
akasia
coke
jio
mw
rt
rwiang
spa
sector
tlai
##ping
##tt
##jection
##69
kab
kiad
nalin
##andi
ngor
##shuh
##uklar
wansuk
##racy
range
mawlang
borsora
##pass
poim
sohtr
sawmer
pynshna
pynsheptieng
joel
slasha
180
18tarik
circ
khatlai
kjit
timothy
shikol
shikyntien
lyndem
jingïakhun
justine
bahaïing
1990
1951
saiñpyrkhat
hortic
standard
memorand
abijah
rumnong
harijan
penalty
husbandry
nfsa
jawahar
saiantis
uttarakhand
menshohnoh
egy
gupta
krat
lynniar
meng
nuit
rl
sti
uala
їaid
##okh
##pai
##tern
##gb
##jeng
##ngeh
bajan
latho
ïashem
khon
##umer
##yrngam
deiñ
##uru
##ullam
hil
kamut
rangthong
umsnam
thamula
madhya
matti
real
ravi
roit
panpoh
##hanan
##asu
baskhem
hynñiewspah
agent
plakad
korah
jyrhoh
hero
##landing
jingiathuhkhana
joram
tito
jeep
gold
kanbas
treat
makdoh
paper
##icky
jingiathep
jingpyndep
syllad
kynshrot
agarwal
tarajur
nasareth
september
donevan
percentage
sohtrun
ala
if
sb
tup
vis
wow
ya
##hung
##ika
##daw
##dok
##ñiaw
##vision
##bait
##bynd
##68
##23
bath
baby
bajrong
##orm
iashah
thym
barap
bro
pyrthuh
##oksi
##elpara
rangad
pheil
bhawan
cooper
shongshngaiñ
104
ade
saitjain
subjek
seven
puron
jingpynshlur
##ryting
governance
position
archdi
666
asak
pyndengrei
organizing
nich
bhowal
pynїap
klongsnam
allantry
jingpyndonburom
kharbhih
riewshlur
competition
integrated
bataw
##shandi
mawdatbaki
##kharaïah
horticulture
memorandum
bull
crime
dpr
father
idei
mha
mip
nion
oct
pick
rda
##loh
##lon
##cf
##dung
##24
##70
##78
ïamih
ïasam
haz
##hav
##lapat
##khon
thie
japan
jingiashim
mela
##stai
##udy
mahar
##mate
langkyr
kharai
190
sning
##uthlong
geda
12tarik
leah
##buda
khyrwit
ramsiej
iatyngkhuh
schools
miners
tribes
sekharaïah
frien
ïakhih
tari
lyngkdop
benhadad
mynhyndai
interest
iuhkjat
їohi
balen
augustine
influ
gershon
lurshai
ïaisah
lucifer
cross
headquarter
esek
prophet
wanswett
egypt
##byndi
dsel
glo
hen
hes
irene
ny
nyng
saph
##ges
##get
##ress
##ming
##kong
##kynmaw
##jylla
##ngiam
hai
shg
pynngeit
iadie
##kheiñ
patan
##stra
dangle
sama
##ndur
mihmynt
jingpynwit
synñia
iakob
sangsot
riewrangbah
jingiakut
pynkhynñiuh
##ubelpara
iapyrkhat
kynrem
rasong
adkar
robot
madanryting
extra
any
albert
jingkhanglad
nongtong
jingthungkam
night
krist
##wadi
##ktah
jingïakajia
affair
1993
apply
bashapoh
ïewduh
iawmusiang
##ronic
dated
larkam
bureau
balajiedkupar
konstiwensi
sohpetbneng
change
relations
dasakhiatbha
traiñing
laboratory
shyllangmat
november
territor
jingjubab
mihmyntdu
grik
hr
mian
nun
pel
rr
rub
ïit
##ser
##ig
##jm
##72
kait
hali
shor
shyr
nagar
donsap
##shatei
##daïah
jingkohnguh
maka
maakah
##athon
mawnai
parti
syaid
iakut
isaïah
tamar
jinglehkai
rab
panali
nongpdeng
hect
perm
resubelpara
tyrsim
rongjeng
sailo
nongpynïaid
four
pynmang
serah
rudnong
##mail
jotham
erïong
camera
jingisih
titosstarwell
protoc
nongmynsaw
table
jingpyndait
registrar
kynjatbol
street
shirta
brothers
malidor
chowkidar
nongpathai
mishra
kiriath
magazine
panaliar
ear
jew
leston
niuh
pin
twensi
tngit
##wc
##pra
##pris
##dir
##01
kadon
khcf
dabor
nongwad
nongsiat
##ynrum
##lihood
##eshi
##kal
##study
malang
dangshen
manstudy
pynkyllon
kthaw
tob
command
ïingdorbar
jingtuklar
pynjakhlia
rekod
joy
ingmane
nongsder
wadkam
minim
ann
abel
alto
mikha
##bition
iasyriem
saipan
##linda
cajee
brig
nongtohkit
nile
allo
mawlongbna
ronie
yout
1950
dheng
selsella
peisa
pension
sdseo
employe
nichols
employees
6baje
aasu
chik
luck
ont
pis
swell
##ober
##sis
##sumar
##thala
##kieng
##44
jingieng
jingtha
##aia
##ora
nakata
dalu
nongh
kuman
##shaphrang
ngab
jingialong
jingput
arshah
tangon
marsha
dispur
##ssasta
nangiaid
laitryng
jair
lailad
rebek
bakyn
11baje
mps
naik
karmel
khyrwait
khlawait
sco
pharma
sek
kyaid
puri
iambriew
relief
morcha
hope
##owal
tenancy
jingiaineh
nongmuna
nongpeitkai
pahamri
pahamsyiem
mawlynnong
sylvan
ioa
owner
pynitynnat
nongjngi
livelihood
chakrabor
jitendra
dispens
mawphanlur
shympriah
yuva
archdiocese
rebekka
4000
8baje
900
btin
coh
ds
fan
ied
poc
puid
rj
ryns
ty
usa
##eum
##ugh
##rep
##fied
kish
jinghun
pyndei
khung
##amei
##ishai
##lig
##sius
kampher
jingiasiat
##inder
sngewbit
##lee
jingpynthymmai
tipbriew
stang
snap
jingtah
jingtur
jingïathuhlypa
##bieit
nongpan
bene
jingbymkohnguh
forward
##ishni
##ccta
ïathuhlypa
##rov
240
jingiasylla
nongtnger
jingpynkyntang
gavin
museum
kadesh
paip
niewbeiñ
jenesis
droks
shikatta
jingїak
authors
ïambriew
rickshaw
padiah
iooksi
iphuh
lakadong
leader
clifford
adoni
bailut
infrastru
gomorrah
pocso
6tarik
dsp
dcc
elam
hing
ima
liam
npr
pk
skhor
##vy
##26
bashong
balieh
lay
nap
nat
##atic
##khur
##riwu
bahduh
hilar
##idien
mahan
##khawa
##ynniaw
nangjur
kyntiap
pynphalang
##yndew
assess
iakit
riewsaid
##che
kharmetor
snier
dohum
amd
##laiah
dewbyr
kynriang
adilbert
ingbishar
jingbymhok
jingiohkynti
mig
iasah
passeng
asaph
finan
nomin
progres
sonowal
bodo
rbdsa
##sory
farmer
jingïateh
macmil
jingïaseng
stephanson
coordination
##pdeh
myngngor
bhutan
kickbo
returning
kyrsoi
ssss
choudhury
kharsyiemlieh
jawaharlal
territorial
laitryngew
scoot
dispensary
infrastructure
dewbyrtha
bes
cy
dun
dkhat
hynt
irat
lon
luid
mg
mup
mlc
psiar
pill
raw
rus
tmar
veri
wkt
##ws
##con
##cles
##dai
##ves
last
sheng
##laboh
dalin
katai
##thing
##shait
##life
##til
aiwai
##kali
##eper
weiking
##yllen
umwali
jingthngan
iaksaid
sangriang
ksaid
pool
refer
##biw
shynrong
184
ramew
memriwu
narco
bsc
pyniakhaid
pharep
balakhawa
compul
lawar
kynjing
mbbs
hujon
consul
jingïohkynti
synroplang
keating
nongrahbor
veteran
objection
susa
fair
provincial
bipul
enterpris
pranab
issue
pyniasnoh
pynsaja
cooperative
ontep
hynthai
5baje
aph
age
akhi
bid
clan
other
thiar
##sop
##path
##gur
##gate
##99
##jaw
##jakor
##ïan
ïan
nag
pynngam
longryn
iasngewthuh
bring
##dalin
##along
pyrjong
sengbah
##haim
##opter
sav
martha
proh
jingbishni
ladthad
thaiñshatei
hangamei
pynkhuslai
tek
##ubri
ref
jingsngewskhem
rash
durblei
duhnong
jambor
suiam
abishai
pohshna
polyt
tyrnem
scor
nongïaleh
jingpynbiang
herc
1998
hussaiñ
mahendra
bengaluru
anthonys
kharpran
sohphan
sdie
sylv
pynbudnam
mehta
miriam
obed
guards
gordon
kapten
abhiyan
physic
phulbari
woodland
disabilities
wildlife
sylvanus
cohso
assessment
macmillan
kickboxing
compulsory
amas
dance
deri
darius
jim
nis
rbi
##asi
##saiñ
##top
##rb
##far
##vak
##ngaid
bait
batip
iabeh
##liz
##lind
bria
sengbha
lehhok
##master
areng
##oles
nongiakhih
thab
bamja
jingdro
ïingtrep
madur
amssasta
jingsngewdiaw
jinglehhok
10baje
duwar
iailong
bakor
warbah
warmaw
140
##khin
jingiohnong
official
subsi
eco
smam
##ogn
bakhrawbor
third
siejlieh
carmel
afspa
suidñiew
umshing
produc
odisha
nokma
langknia
bhattacharjee
electronic
chakraborty
progressive
polytech
alp
field
iang
iba
lk
lis
luth
ub
wohn
##cel
##kol
##95
##qualification
kid
have
##laïah
khongr
##amon
nongphlang
hib
##ote
jingkloi
##ctur
dangar
mawj
##donia
jingiuh
sngewk
disqualification
lady
pynpur
jingthok
jaitley
isis
##toa
##sharing
pyndkut
batyngshaiñ
##iathar
mationg
pow
jogn
##rega
110
##lahduh
southern
abiathar
silas
syros
jingiasaid
##ieser
dima
palestine
househ
##kthang
##oramot
interbiw
yoga
1988
fenel
dakaba
jingsahdien
##ants
iawphniaw
ajccta
iathied
mtdc
pahammawleiñ
##smc
bymdondor
ml05
##shyiap
jingïaishah
makedonia
distancing
fisheries
kngcsu
youtube
financial
ladthadlaboh
deribon
polytechnic
wohnia
fenella
ana
bul
eur
kdang
kro
van
ñiad
##iei
##45
batri
batei
hah
shynshar
##lab
pynum
##anwadi
dalal
nongї
nongtrai
iaphylliew
##khleh
thet
##kari
brit
##alari
jingklumar
##haiah
arist
mariah
##yngkang
shongkun
nangroi
##iculture
nongialap
total
pynsat
pynsyier
##retari
sohblei
kharm
lapyn
dohlieh
kura
jingsngewrit
jingkhriat
adb
lytan
##oney
helic
pyntwa
namlahduh
alf
wallambok
submit
mawkon
ïailong
myntang
maphi
jingpynkhiah
viii
rynghang
jingpynsangeh
1952
way
ordination
kanun
nongkheiñ
france
counselling
response
germany
nongjngohkai
mssasa
sekretari
pahamrioh
warmawsaw
mariahom
6000
bthuh
gat
gyp
jeph
kn
lik
moi
mph
nkh
og
tom
tok
wj
##pru
##rmen
##ree
##48
ïatai
##hab
nonghiar
##yrdi
##khyndew
##liath
##shuwa
barukh
##idence
kamphylla
jingsynjor
jingpynsa
ums
##ication
byms
ktha
##bhavi
banalari
surbe
##isters
kharbuk
jingtngen
amrit
kyllan
poet
jingïapher
adver
jour
##rey
pandit
bakut
bakynsai
beain
jingkrenbeiñ
niamtre
tympang
konstitu
semester
lymba
##kheti
miner
ranji
syndai
acre
democracy
gigur
stage
headmen
headmaster
pynsting
thir
mca
environmental
jingtiengburom
jingitynnat
icar
antiokh
edmunds
years
december
dhankheti
khathynriew
cheque
october
maharam
protocol
adonijah
gypsy
btah
der
esh
hed
ident
jed
jynt
nel
qua
їai
##liaw
##cr
##tymmen
##rl
##56
kibym
hagg
##ynrai
kynh
##ette
##ston
aram
marathon
syep
jingpynphai
nangbun
umniuh
manif
##pasoh
skaiñ
iakatei
pynsmiej
common
mynso
country
kharshandi
19th
##saïah
deep
mother
ritpaid
units
lakiang
130
khongwar
goliath
passport
asar
##riting
tarun
vii
quin
laisien
bypass
1989
##samla
pynthorbah
jingïohi
chamber
##sheet
shoot
embhahlang
shopping
sriv
mgnregs
bapawnam
ayush
jadu
black
lummawbah
##sumari
mlcu
europe
helicopter
6ngut
7th
bern
eg
hem
het
jd
jhad
rei
rest
##een
##seiñ
##wss
##gam
##kul
##joh
##khmih
iohjam
bra
kitkam
arad
ymtang
dango
mawblei
##ynniuh
pashat
phon
pynbyrngia
##kaiaw
ynnai
synteng
manar
bniap
banpyn
##esto
iakine
commision
##thari
jaipdeh
jingdup
sanction
amon
##babel
pynshoh
kembhavi
inquiry
##gene
genesis
anan
hnpf
noli
iasylla
##kjakor
remington
mawkliaw
season
artet
heroin
niger
nongkhaїi
jehoram
shongsah
jhieh
jhtoa
350
nomber
lyndan
facil
sada
mulieh
sericulture
shanpru
370
swe
mahesh
1954
kyndait
mawkynroh
sdb
bajylliew
##astava
jingpynjlan
comingone
krismas
pynthohbria
mayraldborn
narayanas
leslee
pinewood
karimganj
gauhati
baasha
saikia
savio
jephthah
mphrc
advertis
9baje
akh
bond
blanding
fast
jee
ohi
pf
##yee
##wiar
##pose
##dhi
##76
lafar
jingwit
badmin
nadab
kynjai
shida
aiff
thyr
thri
thnam
barjylla
kampoh
jingiamir
jingiaphylliew
##state
##apyrdi
##lamler
lyngd
##indra
##yllup
boro
##oca
##edrick
lumshyiap
concer
thawlang
##odus
pynshngain
diengiei
105
shynriah
pynlyng
wadbniah
succ
119
pynthiah
##kson
tynrong
175
korbar
random
smc
synranlang
220
nongtyng
sepei
viol
pain
jingshongkha
1996
marksheet
rapid
kynshleiñ
priest
##linker
injekshon
greek
lorni
rohit
jinglehi
panchayat
marbañiang
umdohlun
minimum
allowan
rynsied
hercules
identity
lafarge
badminton
ast
boi
chat
cele
dt
gsi
itha
nn
rhi
ros
uk
whi
##wing
##rum
##my
##kynsai
basin
shana
##entine
##awlia
##khlaiñ
##yngngad
hiram
patel
phine
weight
pyrton
paidang
arvind
lyngoh
##opo
mawleiñ
pasi
sypr
jingpynshong
jingpynngat
pynpoh
ktang
mynsong
##tament
diengbah
diengpasoh
delim
ingty
excell
bela
baiai
single
ramoth
gaz
gasa
khanasumari
##niamtra
medic
khyndaiphew
dios
jhep
khihlang
##baibal
giri
jearim
shanbor
ahasaïah
daryl
bashabar
shallum
sohpdung
afric
tyngkan
jingïatiplem
phrangki
production
##bility
ahasaiah
testament
jingkordor
chettri
iakhleh
annexed
sacred
mowkaiaw
dadenggre
sisera
markasa
titostarwell
hesron
jingthaba
bailutksan
luther
british
kharbuki
srivastava
celebr
ess
jen
jrop
join
kda
ment
moramot
nier
orig
##ahas
bajam
ïakjakor
halaya
nand
pynngop
##atiar
##ender
##shei
##lleng
##ihun
##mari
jingiasngew
riah
sabuda
##ini
masharing
syar
jingmad
manas
##pact
##yndep
raiot
lumjing
riewkhlaw
tynghung
sohshang
sohniamtra
dohiap
sanitiz
##bru
rabon
robinus
nongsawlia
127
sush
lakhi
##araïah
188
135
bangladeshi
kompon
kompiw
tehsong
nongïada
##very
kulong
sales
jingiakynduhlang
jingpynkynmaw
qual
sunil
taxation
hubert
khohram
swine
politiks
##rikilla
titosster
micro
dhubri
audit
advisory
balsan
##noloji
record
twe
link
kynshoit
langstang
mawphu
agartala
dkhiah
diengpynieng
##yoti
beersheba
byllien
pyrdiwah
influx
##rbd
manifesto
rhino
bb
buk
dop
gm
gmail
ira
ishong
icc
kriah
liem
lbong
ndp
pj
uc
##ex
##com
##hong
##nat
##mynsaw
##miki
##94
##98
##22
kabinet
balad
kilong
##onga
##haba
shei
pynshad
ngoh
##utra
##thring
jingpom
arnon
shimbynta
page
phiel
tyllilang
manner
manshwa
lumsoh
riewshemphang
riewtymmen
ryngkang
sohsat
kharshan
chul
madon
jingïaiñ
durga
apthap
moit
nongbat
nongbeh
elkan
booth
nongïap
tikrikilla
rana
testing
ñiewburom
mawpun
dumper
mercy
challeng
jeff
1992
trace
kiengatiar
status
lambokstar
jyllud
9436
jingpynthikna
electricity
nongotdoh
dealer
chetri
artikil
sainpyrthei
meshullam
barapathar
hectare
verification
teknoloji
bakordor
phinehas
delimitation
elkanah
7ngut
eia
hym
jok
pp
psy
rte
swar
uma
##lyn
##sed
##hon
##tem
##tieh
##tist
##tngen
##kuna
##bell
balar
back
balamler
jingtala
##aian
shyng
shngain
##ano
shaki
##khwan
##uld
##estic
##shut
##lls
jingiaumsnam
bynda
jingkthang
##aitmet
##ential
jingpait
juga
nangpyn
mega
##iram
dept
pynpeit
thakur
banri
iakyn
pynsyrwa
ryngkoh
kharkh
kharra
dawan
##tamia
wahumkhrah
bijo
##akim
jinglehkhuid
nongshongwai
128
pawan
taiar
tainia
jingiatip
peris
support
theology
bolly
direct
##ellow
regular
ranjan
jemnud
##syier
babiang
musur
saphai
##dey
sunny
##duli
jingshongkurim
kynjang
##ishad
pomblang
1979
khohruh
suhthied
jingїap
maitshaphrang
jalaphet
mitch
nongshimwai
wholes
mesopo
telec
ïawbei
clear
diengpynïeng
holy
jynrat
pyntroin
expert
irani
amasaïah
bobby
supplier
amasaiah
gatphoh
journal
nelson
nigeria
jingtalasi
mesopotamia
ae
bgb
dp
dg
dseo
hl
lt
litt
nt
nregs
ry
##ucher
##ted
##dad
##maiñ
##kren
##58
##jang
##jew
##63
kalam
##ngur
##ynñiew
haran
nano
naaman
pynartatien
dashin
##enson
nongphet
nongshat
##lid
##lipp
thiem
thlim
##shrieh
##ete
nohwet
##trict
mab
major
makhi
maring
marshillong
phaidien
##lekh
##ilo
jingpynpra
bymtip
buhphang
treimon
bnoh
pynsmai
khrei
impact
laitnoh
khynniat
bamduh
laptop
batbit
##ubbabel
jingtyrkhong
iapyn
thohkhubor
pynjai
reliance
jingïab
rashi
ktik
jingkyrhuh
pandey
siewspah
exp
##jaka
jingrisa
##doba
sca
symbol
pharia
eci
nongpyndonkam
jakoid
##syiar
dano
khawpud
mawreng
lyngkien
pynnehmon
shetja
pradip
vikash
multi
serubbabel
jingbhabriew
##manent
iatainia
1986
1957
pasiaw
scientist
jnit
sahitya
jingiathoh
phanbuh
gurung
ahijah
valentine
honour
kaweh
institutional
literature
russ
operative
lupa
ratacherra
kristmas
brigade
hilarius
commisioner
concert
asp
bm
clin
cpi
clinker
doc
ital
jm
jese
lied
lymm
niuma
pic
pjah
sew
som
sna
tiw
##oller
##uch
##yaid
##wp
##thi
##rom
##mieh
##77
bali
basngew
ïatylli
jingshon
naj
kynhoi
##shahary
##tim
##tiv
iohrung
thum
thur
##llor
bram
##aloni
jali
##may
ara
rangblang
rangkynsai
umj
biangbor
buhteng
nongiakhun
banshai
khris
secreter
##mujai
batkupar
uniph
january
devi
teiborlang
apoll
bakmen
jingshoh
mini
jingwanrung
pynter
votes
##derabad
eldie
saiñar
lake
rishan
monitor
jingiatynjuh
ramesh
khongshei
demthring
edward
print
##iwell
siju
nongpynmih
sarkar
їalade
founder
salseng
##ease
danda
nongtied
pravin
pynshongdor
1995
1978
radiation
1987
hashuwa
iohknieh
mama
ïasnoh
jingpalat
jingïatreilang
jingïasyllok
##lementary
khynriam
know
mawtari
ml04
huroi
bonney
dimapur
thessaloni
ïohknieh
foreign
miprl
esekiel
consultant
mahendraganj
nkhd
konstituensi
qualapat
narayanasamy
ohibait
lyngdkhur
jinglehisynei
baiaineh
celebration
jugali
uniphom
4baje
agp
aust
bung
ig
itriem
jlang
lyntang
ndrf
ome
sf
sara
##ola
##wis
##pre
##gu
##mura
##kait
##96
ïadih
##hana
shlan
pynmatlah
##new
##itha
nongwah
nongshang
##yrshah
##yrnot
##khmut
patar
##ient
kyrdon
ribaibal
mawmar
##khaw
##iket
jingsbun
jingsakhi
khlain
khunblang
jingijli
phorm
borti
coll
pynkyr
##edral
khynniuh
kharmujai
ïingsah
lapmiet
garod
spel
amnon
mukesh
pynjngai
##ake
madanriting
##urav
mood
saiñkupar
##ksu
permanent
13mer
reservation
pohkseh
wales
manga
hyderabad
##boklang
jaraiñ
jahburom
wailad
assi
khyllai
##kuriaw
mawria
00pm
pune
sadew
chaud
jehoash
##ricia
iarung
mahindra
drivers
banteilang
buskit
kench
bashlur
icu
fight
cherish
fishery
freeman
kaisar
publish
discip
excutive
sngewthikna
alpha
minerva
succession
painkhana
makhir
italy
jesebel
secreteriat
ahim
biv
gut
jesh
lh
msc
nid
pbo
side
tum
tyngkong
tony
yes
##wara
##gail
##mond
##vil
##ïaw
kamar
kaitor
kijong
shep
pynman
shakuriaw
##engdoba
sngaid
##liya
hiran
thret
##dak
rio
ymlah
mawlyng
##ynniang
jingsat
##yllut
phieng
krensih
##sscc
umjai
pynpep
stock
today
aiñka
sure
tyngab
kharbang
khardew
thawlad
##iate
jingtuh
nongthliew
muktiar
diengngan
hea
##ksah
superv
scout
pyniahap
hydro
##limetre
saindur
cash
##both
as01
ampsta
royal
acid
transit
politics
educational
dumok
jingïasiat
1999
1991
bold
pynjahthait
erbih
syngkrem
1984
mahet
##skul
##loma
transporters
communication
jnat
8217
ïasylla
vacc
mohkhiew
mohrmen
mooshahary
ekron
ussaiah
faith
##mohan
jehoïada
ganga
counsellor
romeo
equator
jehoiada
passenger
bymsuid
##dhist
kharshanlor
supervis
av
ajay
bc
cop
cic
crim
caste
fly
fasta
gop
gos
ior
jc
jynsur
kwin
koch
niti
rew
tung
wiat
wiket
##eers
##uapara
##skum
##cu
##hm
##hor
##pli
##tdong
##tynrai
##zer
##fi
##kona
##boi
##33
baïaiñ
kij
hakatei
##ingstar
##arh
##arsap
##iahap
##utor
kyndiang
##esi
baria
##maramot
kitbor
##ely
##uddin
marthong
prong
##athoh
mawkhan
samari
jingpynbaptis
umt
##halaya
jingjaw
aiñba
##tosh
conne
sohïong
jingdom
##ngian
bate
iapra
ambr
poo
102
10ngut
inn
shemaiah
raswai
adiv
robin
pope
jingwanphai
jingrit
khongdong
narud
narleng
boy
kheiñduh
dongmus
nota
pynialeh
ranab
rupangnong
pyndapbor
entr
maian
nongthaiñ
johny
neil
##aching
nepa
tiengburom
jehoiakim
pommura
organiser
sonapyrdi
accounts
strong
afc
bajengdoba
agricultural
cathedral
gswss
volunteers
christa
motors
rakesh
candidates
melkhi
odd
hasael
##iaineh
laskar
hadadeser
jingpynsaja
poetry
advertisement
nnsscc
lakhish
kharkhrang
bollywood
tiwari
umjaiur
khardewsaw
dongmusa
036
aam
bp
cpc
eu
evan
hum
lsc
oph
rymm
tb
vrs
їas
##lie
##cl
##nn
##gon
##del
bari
baiong
kisan
##hak
shyll
##onia
shaiong
donnam
##ised
longsan
##ynrah
iakhlad
##thiew
##awah
aiban
aijing
baranda
phirat
kamkai
jingiamareh
pyrto
jingsan
pynbieit
jingpynneh
##iction
manshuwa
stor
##yndur
banjop
raikhoh
isaitmet
surong
khrang
##jeet
##iapur
dohsniang
dohtdong
santosh
nongkyr
biar
khangdam
shemaïah
duhnoh
bea
30pm
111
117
mplu
pynrieh
buiñ
nongbatai
anath
anand
dakaid
peres
139
hynñiewta
socio
mangkar
pyniadei
pyniasuk
doub
mlon
##pyrkhat
gall
pynmlien
paila
nongaikam
jingshongsuk
multip
serksis
aware
rynga
iarong
governing
consumer
1958
processing
##ologist
kyndeh
1960
diploma
susngi
ussaïah
pipa
mawphniang
lukas
pynïakhlad
jehoïakim
##pdah
cbse
jingbuddien
khatarshnong
phransit
circuit
henry
permishon
##rovet
haggai
ndps
##lippi
document
khrismas
omega
boldness
fastag
8000
biah
bthat
blind
ck
chap
dso
fut
flo
iim
lod
oth
sner
vicky
wksu
їat
##lud
##come
##dil
##dod
##ruit
##bum
##34
jingmaramot
##ohsat
jongk
##tabl
##ialang
##iasiat
##hibosheth
##urlong
shiv
shibit
##lice
iohrah
sorbah
ngin
philippi
wanda
japh
##triya
mesha
##stis
jingkob
jingkynrum
##inam
negi
mawth
mawjam
##khalai
pahai
phoi
dist
khampher
jingpynher
nanglah
jingmaian
mandir
pynklumar
stop
##edi
ksih
tyngam
laioh
sana
rahman
bihari
kyllamiet
##able
##lyer
nongsteng
namjop
tyrna
scan
agrovet
price
jingiapyn
jingiapthngan
jingkhangdam
placard
kpep
studies
##lesia
mawpdang
##soa
jingmana
jorhat
##bakon
citizens
seiñduli
establ
mephibosheth
makna
shaphan
suinbneng
ashdod
pynbamphlang
elective
industry
ïawphniaw
billion
generation
jinglynñiar
kaisaria
letter
captaiñ
space
enterprise
bernard
gazette
bijou
ntpc
lymmuh
bivar
entrance
shylluit
awareness
establish
ari
eno
ehajar
fm
jy
jym
mese
sele
voc
week
##tuid
##gram
##bnai
##64
##ïng
hanam
hagar
##hadem
##ais
##anah
khe
nongsakhi
dondor
kumah
iawad
##kabu
iohbor
##otle
patricia
wanpaw
kyrshai
##ents
lyngwiar
##inald
prohi
##ikl
jingsleh
##ylluid
##phor
phaloh
districts
jingbu
jingpynïaid
nanghiar
umkor
umru
bymlah
manmohan
pynkdang
langua
##mier
shityllup
lapdien
spl
spar
##shion
satya
amda
##saction
dewmet
nongsoh
budget
plung
joppa
nongbsap
##rant
nabal
147
nongshoh
orchi
170
##iphuh
works
nongïa
syrpai
siatbakon
maint
##ford
transaction
ringdur
welcome
##deep
jingpher
there
jingpynkhlaiñ
syntuid
450
lynshiang
nagaon
swara
dribar
sciences
township
icds
1962
domiasiat
mmdr
srwp
saiden
macdal
value
ghsmc
##tisgarh
vehicles
bapawkhmat
sainpyrkhat
jehoiakhin
delilah
raitong
swach
alphonse
langkyrding
global
layout
ïanujor
nonghiarpateng
shooting
aradonga
kharraswai
##ucherry
moodymmai
kwintal
ambrose
pooja
prohibition
language
1baje
9ngut
cat
data
eug
estate
heman
jang
mk
niar
oil
swai
tmier
ubah
yard
##eam
##ase
##ula
##dduh
##rp
##82
##ïos
bapt
hasor
##air
shek
nasir
khrah
##ylon
nongda
nongph
##awria
##shassar
iohlait
##ukan
wanrung
##idan
meth
mast
maria
maram
marvel
dangstep
prah
jingsei
##yngkot
iathuhkhana
jingpynsngewthuh
sahnam
sahsniang
pynpulom
pynsyaid
poiei
ryngkhiang
conc
conv
laitdom
sohmat
sohmynt
191
klew
klop
tex
##ubi
mukroh
pyllup
jinglehbor
jingshahshitom
khliehshnong
apsta
kdam
buddhist
committe
siewdor
expr
123
##himai
mount
konsil
##sngewbha
sukher
116
sukra
pyntyrkhong
##hania
singhania
basuk
148
14th
khongs
kompany
reginald
saint
waiar
puriang
280
iamynjur
benaiah
benaïah
quo
##ators
##lyngoh
seru
##ophel
jingpynskhem
tig
1985
rapthap
shelah
feet
tenants
380
kyndok
jingsahteng
mawbuh
mtet
akash
coaching
white
implement
pcr
abigail
ussiel
jehoïakhi
butcher
maxi
nrhm
ready
clause
annual
scooty
cyber
khongreng
aristotle
like
kynhied
violet
ithamar
medicine
chullet
ahimelekh
rupangnongpoh
gallery
sohmynting
jehoïakhin
aq
bong
cot
clp
gun
gym
grid
hpc
iah
nd
nss
niat
oak
oxy
ruti
scc
view
wyf
##eor
##ruid
##rishna
##mei
kir
##hata
##ieb
##onald
shab
shabuk
##hil
##basan
deipeit
longdoh
##ynrang
khai
khashor
##liana
iohpang
##shed
##etric
weiloi
##weiñ
rilang
jingpaw
aro
##was
marpa
pharo
sngewlah
sngewdiaw
##dca
phiak
presid
tipblei
isre
pynsuh
kalita
khrai
kshiar
meteor
madhav
dohksah
nongkawang
matt
jingkhlong
109
adit
##rea
gene
geology
jero
##jakhlia
jingbymkhuid
mutong
11ngut
buiam
puducherry
nongshukor
##lapara
corrup
nongïarap
smt
mawkdok
nongtluh
khanasam
badonkam
nongwankai
pynkupburom
low
1994
bisht
1983
febr
grass
##vile
lukhimai
##zaar
pilaiñ
domestic
##peta
notis
sohkhwai
helping
jig
bakhlaiñbor
brother
uhm
byllai
jingrahbor
eliab
treatment
friend
hopeful
rashtriya
diosstar
original
telecom
eugene
select
oxygen
isreal
7baje
ci
diam
jep
krit
muthlong
oho
tt
ua
vv
vip
vic
##eur
##of
##ox
##oen
##ign
##nda
##gor
##ryngk
##mot
##madan
##91
##bteng
kala
bazaar
kinong
laim
laod
##hasi
jingst
jingawria
shngiam
##ahel
##iabari
##enda
nongujor
##hima
##erator
khaid
kaneka
iaphet
bahkhlieh
##oma
ainong
ths
##llai
##llang
barem
barpeta
##langana
##idya
meban
bynñiaw
jingpah
##udia
##wala
##donbor
juban
jingibeiñ
phur
disti
shongtynrai
##haroi
riewpaw
##kumar
condit
kharthang
spok
nongkya
khanglut
diengthang
jingkhluit
103
shemesh
adar
adhar
johanan
rout
nongsah
plaiñ
##itarian
118
population
pyntud
##lumlang
lear
##ynsoit
pynïar
iehbeiñ
jingpyrsad
polok
boston
##istress
jingiapthem
pynialehkai
pynshngaiñn
malkhi
pela
lawy
jingiasnohkti
sevak
nongiathuh
khadwei
##ithophel
lyngkrang
rimai
##tension
riehtngen
organic
shiksha
##demi
kmai
sadusi
ahor
ahithophel
pomkra
##mita
erlang
jingїadei
milk
cmd
jnn
jabesh
8211
8221
greenwood
advisor
stroke
personnel
gadkari
niangti
shawkad
sena
akademi
recor
mohendro
jingotsher
antf
frank
tohjaw
message
jingpyntieng
mspb
mathew
dhaba
mongor
##riewblei
province
jinglynga
vendor
ksangti
##ederick
brahmap
jlih
aitnar
hazare
samakha
type
mupsta
pillar
referee
producer
##seiñiong
essential
baladep
##sedek
little
supervisor
melkhisedek
oakland
khanasamari
february
kharthangmaw
pomkranet
2baje
3baje
bop
blai
deh
dym
gho
iu
jyoti
kyllang
meiñ
mch
old
quali
rp
rid
rongr
yog
##oy
##ux
##uss
##ses
##sara
##hieh
##phar
##nan
##nap
##dia
##dim
##riti
##mn
##jun
##67
##ïit
baia
baner
bajah
hasha
jingnguh
jingmareh
badar
##arch
##angsot
##lath
##anchi
khynsoit
##bala
kumtai
iawai
##khnam
hils
thro
barkos
pyrwa
jingkharoi
lehkhuid
jingpyut
mars
##khaïi
jingsaiñ
##ledge
phrung
bhang
umbah
sahkynmaw
bania
khlemakor
khlempep
##harist
iakjakor
pynsngaid
tyngsong
sohshkor
sawkhmut
kharbih
##odos
muktieh
##brug
rekha
jinglehbha
jingkhrong
dean
dewthala
lambha
bakyr
exodus
moop
jingshngain
forensi
suja
jingrben
karma
late
132
myllen
normal
pohkhyndew
bound
mira
harata
mawklot
sarban
khieshoh
asaraïah
rajesh
simcard
kerela
##epher
dilip
dibrug
poster
##bangla
kuliang
sou
were
their
##chill
rathai
roman
internal
dikkan
academic
jingïalehkai
boko
economics
tynneng
sngewsheptieng
athle
khathynñiew
jinglynshop
rayonald
pyntroiñ
azad
mohammed
tupia
aphlc
physical
jyntah
asaraiah
pfr
nongphetwir
russia
kijba
adivasi
anathoth
establishment
swaraj
implementation
erlangthari
brahmaputra
dympep
forensic
dibrugarh
dikkanchi
7mer
dj
elah
eye
gesh
iban
nl
riej
syllen
urea
via
wms
ïieng
##eb
##eed
##lew
##pyns
##iit
##gew
##dle
##rti
##ros
##ml
##koth
##92
##57
##veni
##88
##71
bajor
bagan
##atylli
##yle
nongpa
nongban
##isoh
iashai
##thro
##khol
##khublei
##tina
##adon
barandi
kyrtiang
kamal
jingiajied
bynthiew
jingkynd
shahthngan
marboh
dangsah
mawsha
jingsiang
sngewmeng
sngewiahap
coop
syad
jingpynhap
umlad
umbir
megh
##bhar
touch
jingthud
shisur
riewdon
##imming
pynkhlad
pdah
telangana
##latia
assamese
thohbria
kyllastep
##manuel
107
deka
nongring
durbriew
jingkyrni
kdor
gehasi
baklang
jerah
jopthiaw
jingbymngeit
sukkoth
warsan
jingrep
anil
latym
iathaw
##room
boxing
mikaïah
core
##eller
mawsaw
jingkheiñbriew
seba
bright
asahel
khyllep
shangbangla
enbin
babylon
simri
galatia
lapangap
##ograph
only
points
syntung
lynshing
atta
swimming
1959
tracing
jnv
elishama
horon
hordang
horkit
ryndia
nongkhnum
##ize
dikanchi
vaj
umsawkhwan
churchill
legislat
tawah
mikaiah
jingpyntngen
reddy
lakador
eklesia
##police
##key
mawphor
hispre
tympem
##betes
kharakor
jingpynjulor
nitin
athiabari
swett
hasao
chemical
artikel
diabetes
keilah
bakhadduh
omri
umthlong
rabbah
nomination
akhish
psych
clinic
mawmaram
jeshua
pynmanbha
kharbangar
eugenson
meteorological
vvpat
condition
jnnurm
ghosh
banerjee
boundary
bajoria
7000
8ngut
aywo
clar
elim
flu
gren
hp
iuk
jp
jt
loan
log
mja
nu
nim
pon
pio
wick
waste
##ey
##uhan
##wami
##pal
##pap
##ikhana
##iology
##ns
##niel
##mrad
##mistress
##fit
##bath
##bishon
kipor
pyntian
pynshait
##iton
daphi
nongsha
nongtei
##istic
iasiat
iakaba
shilum
aili
thoin
##shom
##uki
##ihuiñ
brisoh
##oice
##now
kamdei
river
lehbor
jingpep
##mash
##ude
saff
marrep
##ipta
never
jingseng
samthiah
pash
juveni
sngewb
disease
jingbteng
jingbhah
jingpynheh
umsam
##mend
jaitkam
pynsum
lumk
riewhadem
ehud
hangthie
ïohlait
ïohrung
ïohkem
pyndih
garikhana
##sper
wahthap
nongkyn
pynjaw
jinglehrain
jingkhyn
jinglen
pandal
124
1200
115
buin
sniewbok
##ensive
nations
145
tymmenbasan
13th
associations
khongsti
demseiñiong
orpait
pynshaiong
terter
aganwadi
jingkhangiit
siba
syrwa
##bamut
moderator
review
nihim
dinesh
tukri
neipf
paibah
mawkyrdon
bina
jingshimti
jethro
ronald
ryngad
aircel
advani
headmistress
##jingmut
kupli
8220
peiphang
ohdur
dipr
jingpyndik
lapasam
small
ejen
kingdom
editors
jingïathuhkhana
institutions
mhrd
liewlong
leaving
calc
exporter
davis
davies
television
jliah
mohammad
sohmyn
earth
malangkona
benefit
forwardman
nongtyngur
iraq
clearance
honours
monitoring
vaccine
jongksha
swachh
baptist
aqua
corruption
sarbananda
eklesiastis
juvenile
8mm
fs
foc
gtc
ivan
kea
lew
liat
msoa
sne
stam
utai
wak
wasa
ñiuma
##stan
##cers
##tym
##goan
##diar
##mia
##bcc
lab
ïaki
ïakajia
havil
naboth
pynkhap
ngai
nongjied
nongnah
##yrsieh
##bass
##iskam
khari
iashoh
aikam
thnem
##shrut
##ience
jingknieh
rik
arbinus
tangmuri
ymdei
lyngkar
jingskhem
20ngut
phum
bunktien
jingbthuh
jingjai
jingjakhlia
sahuh
thar
pynibor
ksaiñ
##dpeng
laitum
kotbor
##ynting
pds
##shib
iapeiñ
pynshlei
pynjngut
pynjhieh
jingsngewsynei
deuter
kutlad
geba
1290
molekh
jingbymtip
prov
provision
wengkam
anm
elite
rephaim
nationalist
jingiatan
138
iatei
##ernam
164
2500
jingiohlad
dihsha
again
174
word
compan
nongpyntrei
smti
eksodos
##tery
enquiry
bitor
pasteur
puriskam
kulang
jyrwit
##lando
hannah
umphyrnai
##wada
crp
##dev
philos
uddin
mrd
fact
jingbunkam
bahadur
werlok
wings
utd
tirsah
##jeev
accoun
khynthei
maitdeiñ
myriaw
jinghukum
micky
thadm
kenny
##sorkar
asstt
dykhar
controll
adcs
mawbyr
bajngai
986
ferdin
goalke
jingkhihwin
premiere
nahor
capital
pynїaid
neroca
nathaniel
kapernam
mookaiaw
nitish
liewlep
lucas
arabia
їakren
gotmare
mishoneri
gedalaiah
gedalaïah
pelcy
hingaria
arengh
subsidy
powers
sypros
kompiwtor
ishongkun
challenge
qualapatty
laimer
vendors
cooperation
vajpa
iukharist
sohmynken
alo
ct
cli
cwc
dot
dil
dod
elementary
fra
gal
jraiñ
ling
mud
must
nhi
ncc
ora
pdang
rose
roph
slam
see
tare
xx
їam
##ekh
##ally
##less
##oon
##oss
##sum
##chan
##ima
##ieid
##thiang
##doloi
##rym
##fy
##final
##59
##54
##61
##ïar
baw
bais
balah
bakhia
bapyn
bahaiñ
basic
laha
lajan
jingla
shed
nal
##lane
##nea
##enance
nongieng
##yrko
##baïah
longkur
##thmu
##kheri
kynud
shiing
shiningstar
##esa
##ometric
thlong
thnum
patarim
pattern
wantei
kyrda
arsngi
lyngkhuid
mawka
mawdoh
##neman
shimkabu
jingsliang
sngewlyngoh
dispar
shongshnong
pynbi
##baroh
##oloni
jingpynieng
jingpynbam
nangk
bymïaiñ
bymiaineh
##ire
secre
ksah
##ivah
kharkut
unitarian
teja
madam
##tamur
amka
nongkylliang
##babe
kemrang
kynroi
121
pawar
pangiang
bills
karate
pynïas
##rantine
lympat
abstra
##root
golag
alos
alison
jingiohthiah
banker
phangpdeng
muivah
jingiasam
##bywa
sarai
##raij
jingpynbyrngia
shangdiar
purpose
babel
nabard
rynïeng
quan
thanda
jingkyntip
sunris
sunapur
syntai
chip
siangrong
phlangiap
phlangïap
phlangdil
punit
appro
##badha
groups
upf
1982
pukir
myrchiang
starwin
pynthanda
balui
mohun
highways
srt
challam
pressure
england
mirr
##resent
lerkam
linda
##eering
nickson
bethania
prodipta
##puia
nokmas
mhrc
artaks
##tyngka
alphons
lucky
narcotic
##lization
household
kharmuti
alfred
moina
hlsc
knowledge
vocational
maintenance
mastieh
##vilege
learning
kharbihkhiew
latympang
umsamlem
keane
deuteronom
companies
rophul
kharkutta
abstract
golaghat
aї
buid
dfo
hb
htt
kym
lura
luri
mz
mew
muid
nod
pne
que
slum
siph
sbywa
ts
tlong
uba
##ane
##uah
##uency
##sei
##cs
##cem
##ibah
##tmoh
##gya
##rath
##rod
##zil
##kel
##brip
##31
kari
kabynta
bag
laid
ïabit
ïawad
ïakhaid
##aries
##aradan
shken
nay
##ater
khulom
khmieh
##ention
##unukh
##urong
##khuslai
##lina
##ulit
him
thop
##shken
sorbe
wanpoi
##marlin
kyrang
jingiashoh
meena
jingkawang
##maas
##malin
arro
##cte
##udh
saha
rangbiria
neo
nebus
mawkh
##khasi
jingset
jingsait
phawer
jingiah
sngewpher
phd
bhag
bora
shongkh
ump
umlong
umngi
umdor
bymnang
manna
treiborlang
stai
##yndet
aiñjong
jaitb
iingbasa
##edit
sangot
mynsngat
ryngksai
sohliya
jingdwai
pyndiaw
garobadha
tea
##spong
kyllalyng
106
iewbah
teilang
addr
apex
kyllur
iengskhem
beg
jingshun
pdengshnong
##jabi
114
112
113
blaid
pynrngad
basdang
abed
pohtam
memo
org
tyrut
priyan
privilege
shyam
malaria
compens
jingkitbok
purningstar
khadsaw
taro
vikas
kadlieng
neiah
phraspah
##ktieh
prac
##meel
jonadab
fashion
jingkiewdor
atom
ishbosheth
mbda
damut
eligi
##chari
rapborlang
##sama
khynah
tennis
jingiaieit
jingïakob
jnu
iohkhiah
midc
middle
senna
recei
bajyrngam
mawlyndep
ashok
chandi
confed
144cr
ahimaas
mechan
marketing
reservoir
kenneth
jingbanbeiñ
skilled
streamlet
ganja
delivery
eliashib
guide
libnah
bimola
ñiuhtmoh
tobiah
mikhal
mikhael
marshal
marshall
sylvester
lisen
mawjymb
excellence
riahtam
wholesal
publishers
copy
criminal
goswami
jyla
aroer
grassroot
spokes
rekhab
nongpahara
jerahmeel
against
vajpayee
nhidcl
quanrantine
nebusaradan
9mm
akha
abha
cyl
csc
fit
gin
ishar
lynrah
money
pot
visa
wur
##lliang
##yiar
##cies
##runar
##zin
##kien
##bri
##bura
##87
baphi
baiap
baiar
bache
kik
jingor
jingwoh
jingniah
shlip
pynbakla
pynnep
##tand
khiat
##isngi
##ert
##erksis
##ema
mynk
##shant
shikh
##liar
bahrit
aiborlang
thlieh
##shu
tro
shnogn
pator
patna
patrick
brish
wanlang
nohs
jay
jaïaw
jingiadih
port
jingpas
lyngiong
##ras
##udu
sag
salah
##ylliah
marki
marwari
pruh
mawtamur
shimnoh
juliana
phod
syang
shongksuid
##kaia
nangiai
kongor
poikha
khrew
sohkyr
##ims
##tham
kharkaia
pde
##ody
spts
batch
amram
muker
pynshyrkhei
hokum
rali
anderson
307
##jaud
##load
naia
jingrhah
jingrunar
polio
synrum
synriah
189
1897
ramak
name
##pathai
about
kjpa
khongjoh
goshen
162
tag
nodal
178
bsut
iaseng
jingkhangïit
hyper
jahthait
asom
jingpynbthei
##endence
salman
rajendra
vigi
pynkhlaiñia
umphrup
love
##dusi
accident
accord
saddusi
khapbrip
jingïalap
sokar
sound
solid
sonapur
guitar
1970
1977
darang
420
myrdon
wage
tournamement
kanan
nongmadan
tribals
persons
nujorki
sakhaios
padu
985
jynhaw
winner
jingiamynjur
kaset
shammah
commando
ïuhroit
leave
jingsynranlang
chakrav
mayralborn
minority
pynlehnoh
panchayati
supplies
ïohkhiah
mawkynj
pharmacy
mahanta
nagra
##kulai
rymmiang
mangkara
aditya
riewpawkhmat
legislature
hispreaching
stamp
##kherib
artakserksis
pneum
address
sennakherib
actor
alum
abu
bk
fine
fedrick
lm
lion
ming
mied
ndsa
rk
rul
sip
vat
##ulam
##ili
##teh
##div
##zab
##mun
##mim
##kk
##kiang
##kers
##ved
##bc
bapura
kipaidbah
ïajan
haban
hakata
jingoh
##ars
##oris
##onam
nawei
navy
dala
##endar
kattei
##hill
donakor
##uran
iadat
kynsi
##tila
sngikha
shniah
path
barsi
barhem
kyrkait
jingiasoh
##mala
##aiñia
##rakh
##iny
maas
marsing
nebat
neko
mawkhiew
##donbok
##ikaia
parum
parishad
phest
##ilia
umwai
umsy
bymshisha
deposit
nongiap
stait
steshon
##yndah
##oces
isangsot
pynsaph
riewrunar
##chers
conven
##ynthi
pynduk
kyrpong
metro
amc
amdoh
nongkñia
bieij
biometric
jingsngewlyngngoh
ins
inshi
rahab
adj
##bine
lamurong
##sni
122
12baje
jingbymshim
plielad
153
pynriam
pynryngkang
jingrkhie
##dari
elieser
synrap
behmrad
jingmaïan
182
centres
134
136
rama
residence
khongthoh
demand
scrut
##ages
mine
mikh
iania
subrot
muja
ïaryngkat
pekah
rupangshillong
їalap
mail
roytre
dancers
mawryng
lyngktar
mawshuit
quar
credit
musniang
nehuta
loom
load
nongaikhubor
hindro
jingïapait
jingïapthngan
shanlang
iarai
##badaiah
khlehlang
ephrath
elizab
##chand
1981
sheet
##pynhun
750
corporate
birbor
ajit
pahsyntiew
prev
1968
##ysia
career
whe
plié
baiñong
bandari
jynrin
squad
##tuber
jingїakhun
foreig
mawlangsu
kampohing
sanitizer
sheikh
madonbai
collection
discipline
connection
##motphran
meiñah
touchline
grenade
havildar
thadmuthlong
priyanka
compensation
atomic
spokesperson
abhay
bachelor
barsillai
phestos
subroto
ao
aur
asi
atal
blan
cv
cre
ded
dund
dube
eje
fellow
hk
hq
jjm
kc
ld
niad
ncte
opp
ore
pg
pcc
rh
rngi
srs
sisters
tda
ust
ñion
##osh
##sd
##skar
##hen
##pol
##zak
##fed
##kroh
##jid
##bt
##byl
##89
kaia
kaac
bana
bashai
bajop
laki
jingak
##tag
##tana
nongneng
nongkhlieh
nongkas
##hin
##isition
##urbe
mynthong
khal
shill
##ympat
##omer
thot
thlia
##shea
##alia
jack
jingiabam
meal
pyrbot
rijied
paidriew
jingpha
jingpruid
arbor
nebo
mawthei
##ynnieng
jingsylla
##phul
bordoloi
disco
dismarlin
jingbang
jingbynniaw
jingpynjah
ladpathai
umkh
umjar
jingmynthi
synia
pynpei
khnong
steering
banner
skong
##miel
##haraman
iingbyndi
pynsnoh
shisem
riewkhmat
ryngkatlang
sohshrieh
##ists
##berth
counter
ïingbyndi
pdot
pynden
pyndkoh
spot
##lator
##lated
sanitation
iapyni
##salan
##ghter
big
hehduh
jingkhwan
deo
insta
##ittee
##geon
##eshwar
##janai
nongsaid
lywa
##abat
kmierad
moti
##lanot
thungjam
152
koment
##ases
##ccv
basiaw
basngur
behkam
nongshynshar
ïapoi
theological
abih
khongiong
khongngai
oris
mill
173
ange
place
regu
kpieng
korea
mawkyllei
study
modern
holi
into
jyrwat
jingpynksan
rimmon
activ
timung
jingtian
mawshbuit
00baje
posts
paltan
##rsrbd
pynsahnam
jorabat
schemes
puweiñ
##lakrai
soul
punjabi
applai
##quisition
tibet
feed
wahadad
nhrc
tongper
iawmoit
after
liberal
isolation
lurman
pyndengum
macs
goods
9774
wellbirth
kyrdemkulai
dalmia
butchers
kynshait
swkhd
husband
verma
politician
hilkaïah
hilkaiah
treaty
friends
jimmy
facilitation
allowances
dopth
0364
storage
laodikaia
baremdor
wickliff
nongshalan
accountant
bawri
disparsing
confederacy
144crpc
pneumonia
khongthohrem
scrutiny
dundee
ejehar
nongkasen
wahadadar
0mm
4mm
atha
blad
diat
dhah
dkhoh
fun
fks
fete
hc
hmar
iti
ika
kv
mdp
mens
nlc
pw
ped
ssp
smiej
uj
var
wiar
xero
їarap
##eo
##ay
##uj
##hona
##ilan
##tit
##gah
##ression
##zz
##ñiat
##kyntang
##51
##vis
##84
##79
kak
banep
kil
lain
ïasuk
hass
##haïah
##hanel
naphi
##athi
##atics
khri
ngit
shato
##itary
dajied
##encing
nongkhrah
katt
##awkun
##lih
aiims
hinn
thud
thoiñ
bara
brut
wandonbok
##sikar
##strong
##eling
##elet
saham
##athy
##athone
mawrong
mawthaw
mawjrong
mawkas
jingsynr
jingsurbe
##yllaiñ
sambormi
pareh
sngewkhuslai
jingpyndap
jingpynsah
nangmut
umeit
umkhen
bymlar
bymriewblei
pynkor
sahkhar
sahngeh
skrs
##ociation
aiñha
sura
##hunneh
##retary
riewmadan
laitmon
kovind
192
pynkhrum
jingthaiñ
sanmer
biri
biren
pynjyrngam
jingsngewpher
diengjri
jinglehsbun
apsharai
joahas
12a
1260
##jaya
##lour
##ardhan
mpyc
jingriewspah
bui
leong
khmihlynti
eliakim
142
##nioh
##obin
they
pohjait
khongphai
goog
##laper
kheiñkor
##isterial
agrip
petition
korne
506
cau
syrdep
210
otdoh
hoshea
frederick
rynj
##ralia
jingsuki
nikhla
khyndaispah
musiang
jingmanbha
hindus
jonathone
mrds
kynjreng
magisterial
sonidan
advent
ute
mahli
pynphyrnai
specialist
khynñiat
landlor
pakma
thapba
siklag
ordinator
nethanel
birth
nongkhwai
nongkhmih
bashti
lotha
byndihati
1965
dollar
sospen
mmpo
ashram
dipa
phankon
kohtym
ïashimbynta
jingpyntuid
pci
aidaw
independence
mathem
##326
clean
huram
dkrsrbd
mgnsa
mgnrega
parties
leaders
winest
bcci
dinam
guides
bajanai
bathsheba
narcotics
longrynieng
jingiuhroit
eglon
african
snaïap
australia
nginiong
hanaman
diamond
jephunneh
rongram
geshur
mjaccv
pashhur
calcutta
goalkeeper
jinglalot
nayudu
arrows
shongkhop
brishyrnot
sohkyrdot
ramakrishna
elizabeth
ustm
komentari
nlcpr
xerox
hinnom
bymlarkam
agrippa
dn
ith
jr
jyntang
kok
kwei
lda
led
lesh
naid
neiñ
obam
pent
pos
pir
plat
pmay
rok
sent
suna
soit
sitting
tba
ñiam
ñiar
##ou
##ove
##uct
##nik
##gad
##gra
##ghat
##їap
##dha
##fw
##9ngut
##jen
baïap
##eiah
hadpeng
shyn
khy
ngo
##itok
daman
##enka
##yli
nongmareh
nonglyer
##yrngan
deihok
##ury
khain
iabiang
##thli
##shal
bahdeng
##yllam
##kashari
##shutia
tron
trait
wankit
##dala
##langki
jash
##rence
kitborlang
##borne
##wakhu
##inadab
malade
jingseisoh
parom
partic
khunrei
phngit
bharti
##olf
jingbom
umb
umiew
umdi
bianglang
synda
##pas
##harai
assur
draw
khron
shitlang
tyngap
laitlum
kharoi
kharsah
jingdiang
pdem
chhat
chester
##kila
himachal
batista
jingtoh
amber
pynshem
matern
jaintiapur
diengkhong
jingkyrkieh
mobil
baibyl
pawa
##jali
15ngut
bula
##ynsew
byrsieh
khongdup
narwan
boss
rongtuh
rongphong
petro
saiborn
balawan
peak
jingiasnoh
sex
seal
sekhon
search
ïakob
ïaineh
270
jingpynkhih
pynmadan
theme
kadda
##dron
jingkynjah
syntar
lynba
niakha
##singh
cable
pomlakrai
pomshutia
shankar
1976
advance
markus
seiñraij
swit
nongpyniaidkam
stall
ups
drill
myrboh
tenny
kyndongtuber
pynthymmaibor
ïamynjur
protes
canada
1949
customize
bhup
ïasnohkti
shalyndet
game
umsohlang
gershom
invest
ashkel
##fully
semifinal
##katta
jingïasylla
phrangsngi
unique
##mawlonghat
ejz
electrical
ïawmusiang
nongsamaria
nbsp
dalit
mookyndur
sitharaman
nongshetkylla
myngta
bhushan
lease
mnregs
responsi
jingpyniasuk
jingїalang
hananaiah
hananaïah
goldenstar
thessoloni
ikwah
claudia
sohmrit
ifs
nongpynïaidkam
rjyf
iakito
migrant
london
scorer
sngewkyndit
bonded
which
sushma
balari
umjapung
lhuid
jingbujli
texti
jingkhynwin
climate
bahaiñg
deuteronomi
mzp
chandigarh
vigilance
convenor
jingaksiden
paidriewngeit
motinagar
abihu
google
dipayan
kohtympan
leshka
naidu
obama
umdihar
ashkelon
2mm
aus
ach
bec
cess
dit
eber
ethan
fem
gok
geser
iieng
ibha
kneng
liak
mvi
oram
ple
pied
rg
sens
tet
tlor
tvc
tbeh
wb
zoram
##ostar
##smai
##wamy
##cul
##hs
##hia
##taiñ
##їew
##duk
##rngiew
##kmat
##ked
##52
##41
##bos
##66
##83
kabamut
lalu
habi
##hash
##haisngi
jingarsap
##aram
shtah
jongme
##nese
##tak
ngem
shalak
kath
##unah
##ishisha
##ere
##emoth
##ures
longjait
khaїi
iad
##lios
##liks
##ymond
##shek
sorah
hynre
patta
bariewspah
nohei
kyrshah
jakh
jayan
jaser
jingiashun
lehdonbor
kite
jingpihuiñ
arg
makh
marmet
shuhshuh
paring
parsi
##leum
cover
distr
pynbuh
jingpyneh
jingpynpoi
umtyng
kyntiak
##halal
synkien
bympat
depression
langi
thailand
thaiñba
thaiñka
thaiñki
banshan
isl
sangah
ksar
laitmaw
sohkhia
##iment
ïohnong
jingiakynnoh
pynkhynniuh
spong
spiton
tez
teko
madiah
sanat
sanker
ammin
amef
wahlyng
poul
reade
diengkhap
diengsynshar
jingkhleh
debir
jingïatai
lamdi
##snik
12ngut
beta
##kharai
moor
helik
##lyan
ministers
jingbymioh
ford
formalin
155
158
manoah
karai
based
baseisoh
1800
associate
abba
abiram
##dow
goenka
demon
alla
alvin
165
161
mylliempdah
tyrsad
ronghona
teron
komputor
##arte
silin
remy
ranjit
pear
lawrence
smriti
sariang
enlang
khaweh
septic
nift
tapmoh
timnah
jehiel
solution
sapphi
look
jingphong
thermal
lyndang
jacob
meiris
##lakandi
pyngngat
mbcc
##bina
iarwai
hushai
##venir
malaysia
pheliks
iakiba
proced
##percent
conserv
1955
pilang
archery
wasnik
jingïakop
jinghiarpateng
kyndat
##ournment
netop
custody
controller
umsohlait
gerar
cherrap
##picious
##giri
dipul
sialieh
when
laitkynsew
hawkers
rakot
vivekan
defender
nerpf
luistar
nongshahkhot
hitler
baghdad
jynroh
equal
calendar
freed
half
version
photjaud
aayog
umthli
piskot
mahanaim
rawon
longrynïeng
nishan
umsait
brazil
thyrniang
shyngoid
ryta
araunah
bymsuidñiew
othniel
japheth
oholi
malkhijah
lawyerson
through
aїom
abedne
mawjymbuin
##zinho
##division
adjournment
fellowship
mawkasiang
hindustan
winestore
khronikl
kharsahnoh
tekoa
amminadab
lamdibok
cherrapun
5lak
alam
cd
cut
chara
doi
date
desh
esi
fern
hrd
js
jei
jlop
jcb
ll
nero
ox
our
peiñ
piam
pneh
peni
rur
ryndong
sok
sdrf
tis
uid
vish
##oe
##over
##yin
##pet
##rol
##mr
##mor
##meit
##mda
##mission
##kmai
##53
##jngoh
##bp
##biej
##81
##3ngut
kasngi
baim
babit
kiw
lasting
##ynthing
ïatip
ïawer
ïaïong
jinglang
jingneh
jingmatlah
##atia
##ahun
##tas
shala
##itis
dame
dakhol
donhok
##ering
##emen
longsyiem
iabud
##estry
aipor
##ador
barunar
wanphrang
##dale
jingiamih
mef
jingklim
rida
riff
riwiang
##ento
##laman
ark
arphul
##opathy
##else
marynthing
prec
prek
neet
mawsikar
20th
parari
just
bhat
myntriang
##osed
##olds
jingbyn
jingbate
jingpynjab
umlyngk
umlaper
manish
##bhagya
banks
bantyng
skit
jingthurmur
##estock
surgeon
pynsynjor
pynsohsat
ksoh
mynsien
##asting
sohkha
##phiah
tama
chit
garland
spring
batesi
made
dohthli
##tamin
iapeit
wahk
kuri
parajor
##rement
mattan
reen
reti
rever
jinglehbeiñ
dewbah
jingshahktah
duriap
hyniew
jaiñspong
robi
roland
ingdong
shynraiñ
jinglonghok
jingbymhun
151
mpso
pynrkhiang
lectur
anal
anita
latyr
basum
186
lymph
actress
pynsngewtynnad
##pathi
abinadab
khongbuh
gover
rongara
corner
eddie
cler
##lica
50ngut
##uchi
##namar
215
mawkawah
passbook
sebed
225
nohphaisngi
233
roipar
100ngut
ïaknieh
sale
roykupar
rynjaiñ
active
dib
##sarang
welsh
prashant
##esek
tyllup
soo
take
theisamla
swamy
darnei
rbted
khlursing
eser
1946
customs
1969
lamboklang
antigen
paradais
lpg
umkrem
larry
jingpyndam
kohima
tiewsoh
voluntary
welljune
ultra
pliah
jatah
baniun
##32mn
wanlambok
martial
lymbub
declar
honor
livestock
rajabala
bandary
vending
halla
territory
kalbari
masjid
gautam
nadda
photo
langkyrdem
nyks
hailakandi
rubella
nonghyllam
fantin
iangrai
households
deepak
shynriahti
lumsohphoh
mitchell
wailadmiki
jcmda
macdalyne
franklin
marsyndah
nongbanbeiñ
umladang
khongstid
philosophy
nangkyntiew
kyllalyngot
mukertila
mawkynjoin
pynsaphred
amcsa
jingbymshimkhia
basiawmoit
pynkordit
mathematics
amberlight
petroleum
protestant
auspicious
tezpur
meirisawkun
conservator
jingpynjaboh
bantyngshaiñ
sebedi
rbtedf
alan
akhan
cub
cpf
dol
dathan
epf
ftd
jf
jyl
jung
jpc
kla
lus
liar
myl
nut
ndf
occ
prim
siem
ssc
strik
sieb
ting
tmc
zik
##eep
##yst
##yieng
##can
##ced
##phan
##ift
##tlement
##ged
##dard
##zan
##46
##465
##bom
##byrnai
kijing
kidron
laduh
lashi
laish
##ynad
ïashah
ïangi
hag
hasar
##hant
jinglanot
badka
shriew
nahash
pyniphuh
##ialam
##itive
donlad
##yrta
##uthun
deiw
deibormi
##ising
myndang
khala
iay
##thmi
##khri
##khyndai
airong
thiew
trud
sorkari
barab
barnea
myntan
jahas
weiñ
jingiabeit
bynther
pyrthew
sengbath
jingkhim
jingkilan
rich
kitnong
##udi
say
##inda
maz
making
marg
##ipra
dangrit
mawdon
jingsp
205
sampath
paran
parmaw
sngewthaw
sngewshngaiñ
phh
shongkhia
shongneh
##olis
eight
shunem
nangto
umsha
##usa
##yndia
tola
aiñkaba
khlemraiñ
surg
drl
dream
lyngdohship
ksa
peitthuh
jingmutdur
pynkhia
pynkhlem
laplah
spv
kyrpon
iapait
phail
amm
wahbah
parakur
matabor
bijoy
##radun
pynjrong
janmeit
reb
ktiensih
rungtuh
##bibra
jingling
##rek
nongpen
nongprat
12th
jamshed
hector
forestry
thangbru
nongbuaid
##ynsiem
149
146
##ksew
1875
ïapra
iatyrko
lili
pohs
pohthmi
khongk
tabor
ronghang
##arters
pynduhnong
agag
jaidoh
hydari
male
pynthied
randien
raidmynsaw
nongdkhar
studio
passed
seth
230
hojai
enumer
puramon
275
khadsan
danny
260
herman
achi
acquisition
kroh
angelus
mawshyieng
jingduhnoh
jehos
##rsing
jingphyrnai
##arika
pray
synnah
##ugee
lynthaw
mrdo
fabian
chak
pomlum
ryngnga
##ballat
dharna
##opher
apps
apple
appeal
ephron
swait
swift
up32mn
iakiwei
nurul
cements
tank
ncpcr
fees
340
pakem
marys
track
##sukia
##salia
regulations
sdieh
diko
tinsukia
1963
fif
recruit
twipra
jingïatylli
evang
kedesh
confidence
##thanga
bapop
curric
mecl
ussah
grie
chennaiyin
should
##moon
sikhri
design
abhishek
shiryn
detai
gasuapara
pongding
pongtung
nongumlong
whole
contractual
experience
nsui
saikil
libya
lumpyngngad
visitor
niuhmat
subsidi
nongїalam
jeduthun
ananias
allowance
africa
lumjingshai
salesian
tweet
jeffrey
mitchel
apollos
alphabet
double
orchid
dehradun
souvenir
pynshaitbor
sngewbitar
focuss
ivanlumlang
provident
approval
eligibility
umsyep
mikhmash
blanket
jingsynreit
kornelios
maternity
investment
gokulam
wahkdait
basumat
ndfb
occup
enumerator
aja
clo
crit
diah
dub
diw
fest
five
glor
jj
jnc
kpl
krai
liti
oi
rv
sg
syll
sisa
tun
tylla
tser
tmaiñ
util
yum
¯a
##ues
##uda
##yang
##yiap
##wers
##hynrei
##point
##pnat
##tel
##tee
##dol
##kyrshan
##93
##42
##jynriew
##86
kaur
kajaka
kia
kishan
lamar
##ynthut
harim
jingtriem
jingbabe
jongi
##laka
pynma
##ump
shain
##enary
##hida
##hibition
longsnam
ial
iashad
iadait
##thud
##thung
##awei
##khreh
##riw
shilong
##ulum
##shnga
pathak
brew
jasper
jingiashut
portal
##apat
arki
artan
prop
mawniang
mawkhlam
##donald
##phla
##phriang
phniang
costa
##ils
##ilui
jingbiej
nangheh
umdang
nongias
aiñwad
aiñkiba
##estone
iingshong
iakylli
drop
khruk
##chera
ryngku
ryngkhi
##muan
laitim
bameh
19ngut
speh
snai
dohwah
sanct
amir
##sas
##laint
janmied
##broo
reha
jingkhien
jingkhni
raymond
rosi
nongsyn
budnah
andriw
geological
##kriah
129
##rament
##kharoi
mou
temper
subor
156
##hani
basis
repair
konstitw
183
137
iatynjuh
saitsama
mosjo
also
taїew
200ngut
term
agaiñ
agenda
244
subdivision
regiment
complaint
nongpynkha
nongpynjot
nongpynkheiñ
shohnoh
peor
lawjynriew
їalam
fredrick
purim
40ngut
gaurav
pynbhabriew
pynmut
##fore
allf
nongkhan
dino
dimasa
mushi
syntu
lyndoh
taxes
jingshongshit
gib
##entive
magdala
dorkhast
##garo
jehoahas
more
shankhmat
iarington
jingbhasbun
swami
upsc
330
khynwin
jingїat
wallang
kyndew
hsrp
dain
iawbei
ïasoi
mawbri
vac
1967
tuberkmai
mohon
jingshitrhem
878
pyniaryngkat
treasury
longkñi
retd
retail
digit
pamshong
ïashongkurim
belt
bymdonbor
##352
bishnu
cases
falcon
dngong
lanka
detail
physi
every
chemistry
musical
tiehsaw
broad
tobias
refugee
thyrnia
jropsing
quality
scouts
gopal
nongkyrdan
chapter
phoida
method
readyon
jingkyndang
ferdinand
sunriser
phlangdiloin
queen
shikhyllipmat
angelica
pyndengumiong
tennydard
zoramthanga
betasing
freedom
abednego
cherrapunjee
goverment
jamshedpur
kplt
litigation
tsering
mawnianglah
6mm
936
bed
dl
dyn
ew
eag
esti
ghat
hd
hung
hod
hepher
il
iata
ipr
jhun
joiñ
lie
lwet
mj
mys
ok
oba
pso
pnah
pyllang
qui
rih
ree
tng
til
tiap
tyndai
tube
voda
vidya
vardhan
whata
ïor
їew
їaleh
##lesh
##uars
##sia
##sait
##yap
##ci
##test
##nu
##dd
##ryndia
##zi
##melekh
##fl
##fia
##vp
##43
##47
##bhai
##xt
##qo
kant
bajakhlia
kind
lati
ïakut
##hadien
##ingson
jingtam
nakhmat
##lash
khylla
khmah
khlir
shakti
##itub
dash
##ental
donbos
##yrtok
##urup
khak
##khung
kynnah
##bahun
##shala
##yngta
##aidaw
##tir
aijal
##llu
##llment
trial
trek
baro
bru
philem
##ienah
##alel
##sib
##sium
##iddo
jingiakh
jingiadie
meas
pyrsi
jingkraw
paidbynriew
kits
leitphai
habakk
##apa
##apy
##mab
##mabeth
aron
arseng
tangsong
lyngka
maur
maase
mara
marona
marbiang
nef
mawlum
mawtylli
##khawai
##tru
shimwai
jingsympat
##ective
param
pasy
juda
##nag
##yak
jingpynap
jingpynbun
umdu
##treikam
megiddo
synkieng
##usniang
langdoh
thamar
ktung
kthah
skor
suresh
pynstad
dry
sangathan
peitmat
shitylli
jingmutlop
jingiakawang
kharbud
193
pdung
chest
chess
spon
##iapom
bathiang
satell
jingtylli
santa
sanjeev
sanballat
iapthngan
iapshiliang
iapstai
amred
thohbr
matha
jingsngewtynnad
jingsngewmeng
shema
rajee
durama
joah
nongsar
nongsiew
jinglongkhuid
jinglongbriew
exhibition
##erstand
teman
sujit
##hanaiah
anah
hakajuh
ïapshiliang
ïapstai
saitlah
resp
##khiat
pohlong
kjap
khongmaw
khongsni
alman
box
tyrha
walk
harsh
##rati
now
anganwadi
banking
thomlin
size
jahrin
lawmei
lawkyntang
shadrakh
hour
enc
jaket
jakrem
salmon
salaries
##monmi
simp
rympha
jose
gaal
gass
iamkthang
newton
angelbeth
vig
vitamin
dibon
diwali
dioces
hanani
hame
hamor
##iversity
solar
songthiang
jingphoh
jingphuh
sunar
paieid
akbar
boson
phillip
kmienah
mrb
320
meribah
chauhan
sobah
aadmi
damsite
jean
jether
suhsat
jingpynsyrwa
raphael
shebna
ncst
fever
rbdca
millimetre
kubi
wave
trau
##bhu
ïamkthang
misc
kajingialang
mcpc
hadeiñ
mamre
bhur
1964
##kyrshah
586
9862
burma
players
##katkum
iddo
mikir
redress
curtis
7005
lalmuan
nengnong
bilhah
hissop
jingñiewburom
sessions
diengpynkiang
tamilnad
detention
nehemaïah
jingiarung
everest
langkñia
shelom
evening
##reneur
jaguars
jingpynhiarkput
pubon
bluebell
telebishon
mokotduma
lumpyllon
stick
hazarika
saphret
miani
besalel
bateithymmai
tomar
quinine
european
jeebon
hymen
najiar
heaven
flying
beauty
future
meshakh
shekan
convent
jubanlak
routei
yogesh
athletic
##ography
nucle
nalbari
pynbieij
cylinder
jingorpait
hypertension
winnerson
maaseiah
quarry
wheel
dedan
dubey
wickliffe
apsharailang
rynjup
chhattisgarh
poultry
netophah
jeiel
riffle
zikzak
deiwong
barabbas
pohsngap
achick
diwon
sanctuary
rehabil
quiz
whatapp
aijalon
philemon
habakkuk
maaseïah
pasyih
thohbroin
redressal
2lak
ais
ada
alek
bt
bta
cong
cil
dwai
graham
huh
hpf
isha
jrut
nicky
obadaiah
pym
rop
sony
upad
vai
vell
voice
won
zir
ňiuma
їano
##ene
##own
##uja
##ypt
##wm
##gut
##gue
##duna
##dso
##rok
##mt
##fort
##fier
##kes
##kom
##kshon
##kynta
##kloi
##bim
##qui
kain
kasorkar
bawan
batal
kith
lalong
lamih
hain
hashah
haque
##haduh
##halor
badap
##aru
shylliah
##lada
##laxy
pyninam
##tay
khda
ngh
shalang
share
##itwensi
daei
dalei
dama
##ame
nongbar
##utes
##basi
sngem
##rict
##rigation
##ewell
##shara
##lines
##esia
##omatic
##kaj
thes
##shoit
##adak
traw
##kariot
##ets
barr
bristar
wanñiang
##oikha
shnongrit
##alt
jaum
jingiashem
jingkot
jingksam
##enty
arc
arr
aryan
arsnem
arful
tangjait
ympat
lyngshop
##eless
sajer
rangba
##ination
dangim
neur
mawlat
mawdong
mawsiat
##troller
jingsieh
##phum
sampl
parents
sngewrem
##nak
coup
cold
cobra
jingpynï
jingpynit
jingpyntriem
jingmiat
##halaïah
jingjar
pynktha
sahwai
pynpang
thana
pyniatylli
secr
##yndiat
jingthylli
aiñbad
iakata
iskariot
##edor
##kumta
##ival
laitphar
##phiang
##phira
##ynthih
kliaw
pyndum
jingtar
jingtwad
jingtyllun
madal
dohpnat
sankar
iapler
mukot
biod
jingkhñium
jingkhynñiuh
jingkhynniuh
10th
##sioner
jingïadon
ialehkmen
jaiñt
apil
lamet
##rej
lydia
beor
pawl
khrawbuit
mind
jingaibor
pangam
sustai
prob
prover
jingwantuid
##sohmat
jingryngkang
ani
anjali
elis
represent
141
1400
rising
jude
mono
##iano
185
181
13ngut
hynñiewskum
koloss
constituent
phetrieh
khatwai
nongshyrngan
ïapynbeit
jingtreilang
abish
ijypt
gohaiñ
163
khladnoh
platin
hydel
pynshngaiñlang
nongdom
jingiasyriem
##bamon
brich
##boo
##ondbirth
ency
tengsak
jyrthiaw
motsyiar
nongthang
galaxy
##lander
themmetor
##begre
neima
traders
jingkynthah
municipality
bose
##ugre
falls
pyngat
athalaïah
seraiah
sermon
seraïah
kush
hakine
airtel
1975
##ophe
doctors
syngkieng
rapbor
360
neigrim
jingїaleh
myrsing
consult
archite
itieng
tongseng
kyndiat
statue
їohsngew
nesac
nongmal
bharati
mamata
pynthaba
bhuba
550
jingpynioh
papang
gambegre
litre
understand
topcem
umkdait
iamihnoh
jingpass
syllang
iawanlang
obs
obc
taluk
##ushia
jingïasuk
ïadonlang
identi
sushil
jingpyntbit
product
pcf
digvi
michel
shobal
belto
mawtnum
khemika
jingñiewbeiñ
shongkli
skills
kunai
biplab
kilanmet
jinglyngoh
nsca
irrigation
crow
returnee
jingïambriew
iasnohktilang
stanley
distance
ratachera
steven
sohklet
mawkynthei
innings
rtpcr
yaqo
ïamihnoh
thiep
esekial
saphred
permission
lucknow
rjd
natural
nominated
scooter
sylvia
powder
quintal
mentuh
nandwal
sushmita
##tempt
rashir
somala
apollo
printing
meseb
qualifier
brightstar
98630
mechanism
nohsynniang
athalaiah
wahlyngkhat
sapphir
rurh
reverend
strike
jingspel
fifth
ajaju
obadaïah
donbosco
sponsor
satellite
tamilnadu
rehabilitation
upadhya
vellore
batallion
proverb
platinum
yaqoob
5klur
bhai
boit
byngta
cant
duid
et
eth
egh
elip
fur
feder
gg
gri
glad
gee
glen
jet
jiing
jona
krih
ls
leng
np
nin
ol
ost
ppp
pjp
ppe
ral
tm
tynd
tand
till
use
vo
wi
wush
york
yellow
ze
ñuit
їaw
їadei
##aa
##lis
##ood
##ough
##suh
##sieng
##skai
##west
##wsc
##cd
##pio
##pani
##iary
##ties
##gk
##guh
##їos
##dh
##dier
##rngai
##kok
##kuchi
##villa
##02
##220
##ïaleh
kalp
kangar
bapa
balance
bamatlah
bashemphang
kilik
lashah
laleh
labang
labuh
##ynda
ïalang
ïasah
ïakhlad
ïaphet
jingan
jinglor
jingtan
jingngiam
##aindur
shing
shutia
nahar
##lay
pyntam
pynwad
pynthait
##nelian
##tacherra
khieh
ngan
##iter
##amah
##yrha
##yrshang
##utieng
##engkut
ongba
##thlen
##khwa
##kasla
thing
three
troh
troiñ
barben
wanshnong
##noam
##nocent
##albibra
##sina
##side
kyreit
jaya
sengkam
sengkur
jingklang
jingkynriah
jingphai
##hail
arwan
arjun
ymca
lyngki
##optar
##ellig
sau
rangsan
rangshken
##inot
shahktah
prep
prison
nedf
mawiaw
mawmer
mawtap
mawutieng
##phone
phalor
sammut
sngewbiang
##dcc
bhan
##hange
umñiuh
umsur
umyiap
manu
pynkynduh
sahnud
pynpar
pynpyngngad
thaiñri
skur
towers
pynsarong
drs
drum
immer
import
riewshit
##kumba
indica
laitphlang
laitkyr
sohshnong
ïohlad
##berry
kharlieh
jingdiaw
pynkhluit
tamul
garg
##shiah
##shish
satly
muksor
thohmut
dukhi
reach
diengiap
death
dewsaw
rasor
adullam
lamlynti
kdong
nongsngap
pandem
pankaj
duhei
pynlyngkot
lytep
jinglongtrai
beelse
heber
khrawkupar
voting
karnelian
latang
##rando
elep
eliel
kimdei
risang
rishi
1300
iatem
poling
almond
tali
terah
kheiñsting
172
1700
17ngut
hyund
regi
tikait
caf
cause
nongpynkhuid
lawlynnong
tripathi
218
213
##yrkhing
sarva
seva
amphan
how
entrep
intellig
josabad
gashnga
hektar
urksew
sporting
kruiñ
hanun
mawpran
jingpynkhyllem
500ngut
pushe
meira
jingshongshngaiñ
gross
luizinho
jingïapthem
ahitub
mori
khohwah
jingpeitngor
rudwah
theilin
##vances
mahlon
procession
rapsbun
nurses
lenpdeng
shekhar
jingїoh
fedc
titosstar
milkah
its
rattacherra
kenas
iashongkurim
certificates
nhm
statement
rmko
inspection
kajingpyn
mawiongrim
selophe
1945
sohpian
sdot
##teshassar
sakkur
##kyrmen
##tyrsim
umsohbar
mmdc
invit
helmet
tiewdop
ferrando
jesus
carey
jingiambriew
marius
susan
rakkam
persen
rehob
wilson
nahshon
pynїoh
belteshassar
ussi
clea
iakhmih
їathuhkhana
kipulit
zones
partner
gangbura
jingshetkylla
phyllut
childrens
homiwell
shelem
kyrsum
reading
reader
jagir
nongkamsniew
brahma
nikod
sohkew
pynsepei
rubi
jairos
hinge
bodoland
aphek
maheshwari
quallapat
pickup
##hanaïah
pynkyrteng
assiociation
christabel
enokh
mesej
express
expression
presiding
jeroham
jingstet
records
wahthapbroo
mawbyrsiew
mudra
shedding
receipt
troas
preventive
foreigners
umlyngkdait
declaration
chakma
grievances
pynmutlop
mawtylliat
lalmuanpuia
shelomith
zirlai
kolossai
neigrimhs
nongmalieh
wushu
kilikia
jinglorni
laitkyrhong
pandemic
beelsebul
hyundai
rmkoft
selophehad
coi
cjm
gid
grat
hub
kjor
kbeit
lun
lent
lwa
lunar
mock
ond
peh
pup
pele
qualification
rut
rymmai
sieng
sied
sgh
sliew
tp
tdot
wp
їada
##eber
##eases
##oli
##tle
##nathan
##guri
##rg
##myn
##mok
##mill
##mynsiem
##fone
##fred
##khiah
##432
##jhun
kang
kalai
kachari
bair
balait
labasa
larsing
##eiei
ïaks
jinging
jingnud
badki
##ohit
shur
shkim
##oration
pynkharoi
##aton
##atra
##neous
khyl
khel
##encies
##hiro
donjam
kumka
kumari
##eries
##urim
##urve
iabun
##khoit
trap
baruah
wankai
wanmih
wandur
##alow
kyrw
meco
##stia
jingkurup
rikut
##kamai
aris
archi
tangsang
tangmang
##opia
##opal
saba
rangkyn
mare
marai
markhong
mawpyr
mawlot
##khappud
jingslap
##phie
samhoi
phens
phukan
cooch
diseases
shongdum
pynbyrsieh
##baram
umja
umshang
umjari
umtrai
jingmait
##ich
present
jingjem
pynklet
pynkthang
langshiang
combine
thaiñgaro
bankhia
bansara
surv
pynsdien
lumsyntiew
shish
ryngksan
##phin
sawar
ïohpateng
jingiaksaid
1937
tamsa
##odar
##shilliang
nongthym
madei
##babu
muktan
pyllew
mater
refor
jingsngewieit
kynra
jingïar
race
apj
jog
roj
##khuli
duhjait
andy
plus
nongpiur
nongpyrshah
behar
mob
303
30ngut
jngem
##kitei
##lysis
##dora
##loom
proof
##ards
kombor
bless
##tani
niamra
pynroh
pynrhem
thangskai
##asst
karan
karmi
anla
elton
tympan
143
14ngut
187
perfor
131
kolkatta
namding
associat
abvp
khongthaw
khongstia
ald
166
orth
rongtyrsim
mixed
179
177
bsah
nakane
##linary
tikmie
hynniewmer
hynniewskum
comptroller
syrwet
raidam
smer
nongdro
selah
skhembor
jingpynbiej
##ffer
##stic
tars
target
rajai
rajen
simsang
rymphum
sepsngi
rimpu
##force
hans
kharshiïing
musli
pynsahngeh
##deo
jingkynad
mawpon
##dinate
shikilo
4500
chirup
chidam
niewtrep
titus
kulam
soar
shanborlang
iarisa
375
pynkhihwin
pmj
seiñiong
stay
headman
##ïapom
maheh
##sky
sheen
landline
thian
rbydso
##shiteng
jingiatehlok
registered
##vaj
goldy
rmsa
carbon
tubal
dykes
daiapher
hormah
opd
iathu
liberty
ïasyriem
bison
sniawbha
##kyrteng
padun
constitutional
jingpynduna
chandran
jingkutlad
pynbunkam
haiñg
jingïasaid
idol
tollgate
biswas
where
nicho
wahkaliar
plidar
##dewiong
##keti
belshassar
jingñiewkor
jingbankhia
jainkup
jainkyrshah
ïatyngkhuh
jingbahkhlieh
shelter
mnrega
operations
##dumbur
fullmoon
stanly
##rajhar
maskut
exchange
raitoi
witness
tiehbah
bakynjang
kishore
enterprises
sngewkwah
nongїathuhlypa
##comdf
shyngiar
najim
bungalow
nidamon
mawthengkut
nongsohphoh
seruiah
seruïah
baiapher
hashab
miracles
mawshamok
riewdonburom
pynkhapngiah
fitness
nagrabil
sensitive
helikoptar
baghdadi
lecturer
recruitment
jingkhnium
subordinate
eagle
jhunjhun
vodafone
khyllad
miscella
aleksan
nongbareh
tamulkuchi
fedco
mecofed
umshangling
chidambaram
ama
asan
auction
aux
bsp
bpo
cri
cra
cake
diction
eie
ebal
ebed
flat
fencing
gul
gdp
gera
hoi
ipher
joh
jica
julong
jbcc
klat
loi
ljp
lord
lushia
mtd
ning
nra
nop
overs
piah
rath
sñiew
slung
tla
uri
ucc
vent
ϊa
їab
їoannis
##eus
##ass
##oa
##oah
##uka
##sr
##syn
##sneng
##sada
##col
##culture
##prah
##toh
##ters
##mw
##mynta
##kud
##kle
##kynduh
##578
##vade
##jc
##bsc
baanah
kie
lathoh
ïabeh
ïashoh
ïadait
##arad
shkem
pynngad
##atre
##ahem
##taol
khen
khien
sharad
shajngai
##itty
##itpur
nongkhot
nongshon
nongmawlong
nongshiliang
##yrmi
##unna
##isia
##erc
longr
##ynrop
iakhana
##thon
##thlu
##khos
##shab
##shaiah
##shaïah
##shakap
##tiah
aiud
##kalur
iohpateng
truth
trump
##ients
wanri
kyrwat
kyrdum
javade
jingiabit
jingiaburom
##stet
pyrnai
jingkhaii
jingpar
##masi
lyngng
##ind
##upang
need
rangbahshnong
mawkriah
207
##yllew
samanda
pashor
pashait
ladakh
sngewieit
##nage
##nable
phrah
phoen
borsing
syiad
khamkloi
##osoh
##osal
jingbna
jingbuaid
jingpynm
nangioh
umkyr
umsarang
meghalayan
jingjam
buhnud
manor
pynkylluid
langte
come
thaiang
tharia
thaiñkhappud
banrik
##ocation
toss
##mihud
##estra
poipynhun
lumthup
imd
conces
sohjew
sawngut
##thana
jaipur
kola
kotsada
##shongkha
sansk
iaput
among
amwi
ambass
ammihud
powa
jingsngewhun
jingsngewtynnat
diengthew
diengdumbur
dear
##sevak
apl
##read
nongsor
nongsynran
bakthang
moot
slan
pawshai
##loct
commissioners
komm
mpca
##ishong
pynriew
jingrong
leon
nongblai
voter
anup
elon
elnathan
synram
kyrshanlang
kiewdor
khatkasla
iatiplem
resin
thebes
abdon
abieser
hnloct
narleiñ
alhia
167
bow
scale
scpcr
deleg
stephen
harieh
harris
eddy
komputer
agor
agitok
##bertus
pynïapher
trinam
21ngut
smea
sebah
beaiñha
223
##boa
asmabeth
jingmihsnam
workmen
khyllew
shangrit
ïakylli
purohit
door
jyrmi
288
suman
summit
##lyngkien
moto
soping
modified
urupang
bakhor
iamon
##halya
tappu
krison
ringswai
vinod
##ogen
hambertus
##sari
musa
neiphi
armstrong
nongwanjngoh
##baim
##ktung
meirad
grow
kmang
footpath
326
##entina
menai
menahem
tyllait
riblah
maggi
damian
jehohanan
jeush
bethuel
ryngdang
rynghep
ryngkap
sonitpur
bodies
guaran
##osition
##mila
##mile
##milan
##quote
332
rapjot
##samgre
transports
constan
classroom
military
registeration
jingïakut
trauma
ratio
434
430
asstn
##kasiej
kanjari
protest
nongmudui
mahajan
dainad
preg
jeremy
penshon
iathep
bashukor
sakrament
icse
salmunna
niangbyrnai
fifa
grants
pileser
850
denang
sainik
franky
dipu
mehding
debora
without
jeskalur
window
idea
amanda
employee
04a
firstborn
impro
wilfred
jatkmie
emerald
pamph
plants
wjhd
economy
9612
9615
generator
pajut
judiciary
shammai
dhanketi
##lympat
krishan
changpung
ephah
homoe
##shyieng
##ythai
minorities
nongkamai
dinah
nikman
kwwada
nyk
bakynjah
##liguri
jingїakhih
jingїakynduh
cycle
provincialisation
scorpio
eshtaol
nongtynger
astarte
chattisgarh
sypress
joinri
lumjingtep
titossterwell
tweeter
journalist
mscw
mawlyngbna
documentary
floor
khebar
nongphud
tiglath
bongai
scccomdf
khaiï
jerobad
##oenai
jingpahuh
meghlaya
pdahkasiej
elimelekh
aquaculture
khadsawphra
grassroots
salmanpara
instal
function
##obindo
landlords
kokrajhar
postal
platform
particip
responsibility
textiles
latyrpad
clerk
surgery
rebec
detailed
snaiap
dynam
joiñt
vidyalaya
trekking
measles
nefip
khongmawloh
diocesan
adalat
brichyrnot
understanding
identification
beltola
khemikals
eliphas
ostrit
manufa
drsrbd
elephant
regimental
entrepreneur
##hiroth
mareshah
markhongpong
phensed
nicholas
miscellaneous
dictionary
aiudf
javadekar
concession
sanskrit
ambassador
tappuah
9000
ax
aba
ase
aham
bot
bbs
boney
cyr
cad
clai
chah
era
eric
fake
gana
gsmc
hew
ille
jeng
jlep
kyl
lob
loma
myngk
muth
nk
nus
neph
pme
piano
siv
site
vh
vision
venti
vgk
wy
wea
ñiat
##af
##liem
##oad
##uise
##ucture
##ysius
##wieh
##wila
##cia
##piah
##pui
##ira
##ios
##iarap
##tn
##ghalaya
##dud
##riel
##ñoit
##kub
##kyndong
##vie
##vation
##239
##ïot
kador
##nguid
baba
baïar
lalung
ïathied
hatei
hahiroth
jingdoh
jingrang
jingiphuh
##angre
short
nasar
##lav
pynmareh
##nen
khei
khing
khul
ngeh
ngun
##iab
shaphi
shaïong
##hip
donation
donroy
##utduma
##uncil
##iss
##istics
##istrict
kumh
##emos
##emic
##urpose
khaduh
iau
kynih
##shain
##ullah
##aidong
iohbat
##lled
trot
shnon
bron
##noline
kyrth
kyrini
jas
jael
jabin
metal
##sted
jingkylluid
rin
jingphar
jingpuson
##apore
##borough
lynghoh
saja
save
sagar
sache
maya
trail
pris
nege
mawa
mawiang
mawlam
mawdem
##khaïah
203
2030
##yllep
##yllieng
##phs
##phon
##phut
parvaj
pakit
juba
jual
##nde
sngewbang
sngewstad
borkhat
pynbat
##ilma
##matur
##osis
jingbeit
jingbylla
jingpynpur
jingpynthud
ladthala
umka
umrit
umsong
umphiang
jingminot
meghalya
##ician
bymsalia
##irul
depart
pynkynd
pynkdor
##ushi
nongiak
stew
jingtheh
isbt
presidential
lumkseh
##chen
##chestra
ryngkneng
contempt
shitmet
tyngkhap
laitjem
sohma
ïohmad
bamkhana
##jeeling
jairam
congres
kharbit
##tions
jingdait
jingdkut
chut
cheng
##kigre
garden
sni
jingtyngkhuh
jingtyngshaiñ
metr
sandy
ammend
wahum
mati
mattana
##mawtap
##broi
rene
really
emlang
jinglehburom
jinglehmeng
10m
10lak
debas
rag
khliehum
adolf
hynin
jaiñsem
lamekh
root
kdait
shynrut
pant
##urag
jerin
pls
joplin
beti
##ramew
konrai
302
minute
jingbymler
mutia
subha
15000
jingryntih
rithor
voters
singapore
elisa
iehkam
basu
##pleng
1829
1335
khatkhyndai
ïapthngan
nampliang
above
poly
khongji
khongtani
narphna
soccer
168
1600
orchestra
255
tyrko
rongrin
miis
teresa
agro
243
kpanah
pynthnam
ïarwai
sinew
siliguri
remote
cali
jahrngai
shohshrieh
lawsan
lawse
mawkneng
nongmihkmat
226
22ngut
##hate
artaiew
232
їashim
enro
intensive
100klur
maiong
maieit
jingkitkhia
foll
##lyngkut
syndep
269
29ngut
iamane
##halia
medhi
gnm
newhill
##tention
shongsain
00am
musari
khihwin
universal
mawpynthih
khanapat
jingphlei
##scus
##screen
akwila
jacm
jacso
457
pugh
jingpynshit
atar
attai
seraph
engineers
magnit
sounder
damal
shanniah
erop
jingpynsawa
tiger
driving
transpar
neigrims
lening
lenmawtap
pasleiñ
kenstar
results
650
kyndoi
proteiñ
finale
kajingia
silk
incident
510
mawkynring
660
makers
location
keshari
keeper
papa
umsawnong
##204
niangryndia
gamal
recom
mawlynd
examine
zenithsky
lariti
burieh
wapungshnong
marcuise
bokstar
macdonald
macmilan
muaythai
nobosoh
packa
813
gurud
##amareh
wrb
pcn
jatalong
drola
plantation
nenggate
##wards
godown
wire
honsen
kawe
debate
ïawanlang
##eillance
beeroth
epid
trusts
syngai
ballot
leadership
migdol
passengers
producers
khongrymmai
sweet
sweety
pynlynga
astor
whip
giriraj
balios
chaudhary
##zerland
multipurpose
futsal
cotton
vicar
distict
adarsh
mchfw
bakyrhuh
mohammedan
psychology
provisions
pynïasuk
tsf
wholesalers
aurobindo
umkhyrmi
senten
sexual
switzerland
umtyngar
procedure
umsaitsning
mefilma
mattanaiah
retirement
curriculum
syllai
broadc
respir
gassah
vigyan
biodiversity
crowborough
canteen
kalpana
taliban
partnership
surveillance
daiapherbha
crinoline
venture
hnloctpa
trinamool
nongwanjngohkai
growth
menaiksuid
dainadubi
manufactur
sacheti
mattanaïah
khanapateng
magnitude
nobosohphoh
1lak
3mer
9th
aki
alle
boca
cbu
dic
dkhiew
dulong
dwara
ethi
fft
ffc
gem
get
geder
hund
ilek
irin
iunukh
jl
joi
jynduh
jler
klin
luh
less
lian
mba
miang
mma
mpa
muri
msm
mgs
noi
os
ober
obe
osc
pok
ruk
sed
salem
src
tdoh
toph
tpep
urim
vik
visu
wgh
ybsc
ïunukh
##eba
##ees
##soi
##care
##hc
##nui
##gel
##їong
##dkhot
##diel
##rukom
##zation
##miat
##ñiam
##fs
##flang
##fas
##koi
##kilo
##55
##bod
##ïoth
kapo
baic
bashi
bajar
bahap
balyngkot
balius
baidya
laleit
latin
##yna
ïaphylliew
ïakhmih
haat
haok
hara
hadem
##hali
##hapoh
##habad
jingdei
badum
##iek
shot
shoiñ
##orti
##orty
naor
nama
nakra
##lasa
##lakhiat
pynll
pynaram
##atal
khyllip
ngiew
##ialong
shari
sharati
##itus
##ehnoh
##bapher
iakhap
##rion
kynoi
##shaba
##yngdoh
aicu
iohmad
##llo
barman
barua
baroda
##ihuin
phida
##iency
wanpli
nohkali
japa
jakhin
jingiajngai
mean
##ste
##staiñ
pyrsha
senglong
jingkynra
ribok
pork
arth
##cter
sabad
rangap
marmar
martam
marngor
marmaiñ
##iper
prang
praw
neem
mawia
mawit
jingskud
204
20snem
parien
parlour
pasan
pasoh
khunruit
sngewburom
sngewkhlaiñ
phor
phlo
phrin
phres
mihsalan
##osing
eigh
jingpynwan
jingpyniar
jingpyndem
jingpynleit
nangt
umpih
umsen
umbuda
umktieh
dorjon
synjam
synjat
bymsngew
jingjngem
##pak
pynpyrkhat
stoin
stitwensi
##tiphar
banylla
skan
toba
aiñia
aiñki
##harge
raibi
iingjah
pynsam
pynsiew
pynsalia
commod
imsngi
immanuel
riewia
riewarsap
contri
laitluit
laitflang
##phis
##thakur
bamk
jingiaklumar
kotbah
tamang
pdeiñ
lapoi
pyndom
##ode
spread
##latory
jingtyrha
madras
sanu
sanshyieng
pynshkem
##mawlieh
poor
potiphar
janice
##manik
##mandu
reason
hehspah
emi
emotion
jingkhoh
debo
dewryngk
jingïania
raïot
bhoilasa
adop
jinglynniar
jingkyrsiew
joï
roller
##eshor
shynrai
##reas
nongsngi
duhalia
geography
lyting
shishak
iaishong
jerim
exist
extension
before
mool
moef
306
30am
##loth
jingbymleh
highly
154
157
jingwanpoi
mpmc
mpdf
##sohblei
##rehensive
thangding
manoj
leb
lehi
##asis
lakuna
tympu
thiedsnam
seminary
##ksai
perfe
##uiya
shukla
mosque
sociology
album
16ngut
pynshailang
##agre
##shimet
edrei
jaidb
nolip
245
246
242
pyniakynduh
substan
registar
kparad
pynshngaiñu
nongïoh
muka
muham
mawser
comprehensive
lawbyr
autonam
nongdawah
jingiasynran
222
eksodus
239
hog
holando
##dict
##stian
khadu
sumit
267
nongtyr
nongthiah
lyngknep
290
sopiing
kery
bakhyllah
##forces
319
nigam
##icals
medium
vijaya
##oster
sabina
##ills
welbirth
sharon
kadmiel
soldier
armforces
finding
nongwanrah
355
3500
jingsiewspah
##arib
sunscreen
iadonkti
aktr
aktor
akkub
binnui
meisan
marbanniang
iongpiah
mrss
kune
justin
jeet
bethsaid
pungsum
moris
morth
ranibari
soni
risaiñnoh
forests
eliph
elihu
darwin
darjeeling
khiewja
jingpynsaphriang
8014
##fery
lenlade
pynsuki
jingiaieid
##laitumkhrah
kwaiar
##ville
cmc
dhte
##bhlang
##jingshai
siejiong
nh44
esmatur
ordinary
gracefully
ïamir
nonbah
jingkhlaiñbor
820
nesfas
carnes
jingkerkut
includ
##baptist
sohpdok
straw
jeremoth
makked
icmr
kevin
beria
parade
akaba
recharge
bajem
##stration
jingïatrei
dipshon
event
gilboa
879
winning
##katba
unified
ksanlah
##simos
jingiatreikam
nico
herodias
onesimos
rehum
abihail
jathang
##pect
gree
luilui
mynhynne
bloss
christopher
cleve
khemosh
ghd
nanpol
marpohkhyndew
tiensyiem
smartphone
chowd
literary
jingiashongkha
jingpynsngewbha
knii
eleksion
nusib
malaisohmat
slipar
nirmala
livingstone
exporters
choudhary
jingriewblei
##foa
property
##ternal
deiñkhlam
vishal
pisgah
nonghukum
duncan
akhil
baitlang
anakim
wjnc
pynshohbieit
pynlyngoh
kompiwter
iccr
##ishaddai
basngewtynnat
thummim
pyndapborthiaw
ophrah
doubles
flower
distur
macdalyn
jangew
marvelene
khongsdam
friendly
sebastian
hpso
lumkshaid
fraction
mawkajem
http
https
mewan
jingiahuri
jaitbyn
begum
98560
chakravorty
bashailang
regulatory
suraj
chesterfield
bhupendra
jingïatainia
allahabad
pearl
pilangku
precious
jehosadak
allfondbirth
estimate
tiles
mathaїos
simpyllieng
routeigp
btuit
ishamati
damascus
mawsiatkhnam
coupon
sustainable
federal
saubhagya
intelligence
morigaon
bairung
ïaksaid
jhunjhunwala
asanang
phoenisia
neiphiu
guarantee
constantine
pmegp
ventilator
priskila
##phsva
ladthalaboh
pynkyndeh
kharbithai
gamaliel
gurudwara
respiratory
hundred
mgsphsva
oscar
topheth
haokip
senglongkmie
dewryngkhiang
tympuin
perfect
bethsaida
makkedah
nanpolok
9mer
au
bthing
cg
cgb
dkar
did
doit
ddu
ene
fu
ful
fail
gec
ist
iaiñ
iphylla
ilaka
jk
jla
jiv
jrem
kya
kwat
lop
msh
nba
nest
nond
pus
rn
rer
ruid
rkm
rynnieng
sylli
sona
soan
t20
tmang
uti
vid
vir
vatic
writ
īohi
##elah
##lt
##ount
##uai
##ubah
##sym
##sra
##slem
##yot
##won
##wda
##cham
##cipal
##hing
##pop
##ines
##nce
##gang
##git
##grim
##gran
##gro
##gement
##їing
##ders
##rish
##mong
##mod
##mesek
##khai
##538
##vier
##bis
##bub
kabul
kabym
kalyan
##ngum
baleh
bapoh
bapar
bashimet
kiran
lalap
lashim
laef
ïaphi
ïamane
ïaishong
hawai
haram
having
jingn
jingī
jingngam
jingrej
##arium
##anga
##angblang
shepher
pynis
pynjuh
khura
khriang
shakor
shalyng
##ense
nongtri
nonglyngkien
katnad
##yrsiang
##utnik
##bazar
##uni
khama
khasis
iajied
iabaroh
##thel
##aweh
##khnang
##shalai
##shakri
shikur
shinde
##liah
kateika
##yman
##ymphor
aijam
thr
then
those
##shua
philah
wanstep
##nol
haphi
kyrsian
kyrshut
jaba
jingial
jingiakha
sengsaiñ
jingktha
riban
jingpei
leitkai
leitnoh
##app
##apati
##lamwir
arba
tangk
##elia
salam
sakharaiah
makhon
marian
mario
##upp
##ipa
prut
pret
mawd
mawlan
mawten
##iku
pull
jingsong
jingsyn
jingsosp
jingsngur
jingsohsat
jingsaindur
##ecretary
pakh
païa
shongdie
pynbang
kynthet
jingbur
jingbtah
jingpyntha
jingpynkit
jingpynbit
jingpynithuh
nangsan
umshit
umtang
watch
kyrtoh
jingjan
mand
manj
pynkren
pynkbum
##paul
pynpyiar
start
thaiñha
baniang
##ocal
towards
jingthur
jingthom
##haria
iakmen
iakyrshan
ishi
presidents
##eden
drda
commis
##ceut
imon
riewphylla
peitbniah
##chung
conso
conting
bamboo
jingiakulmar
kharshong
kharsoh
kharshing
jingduai
1938
##wanath
##yntngen
lapsan
klon
span
spain
sputnik
jingtipbriew
ophir
##iatric
jingtharai
madh
dohk
shipah
rahim
parakha
pyllon
matri
matter
dukha
emma
embass
jingkhlem
kynrong
##bill
apocal
jotin
nongsier
budam
andreas
geo
iaiaid
iaieid
bakhiah
jerome
##abel
nongpet
nongpyllait
bevan
##himpur
baibel
jingaijingmut
jingbymshaniah
159
komen
blu
pynran
thangbriew
thangshalai
anurag
pynïab
##lartham
laksh
lakhimpur
jerusalema
rephi
byrngia
semam
1862
southwest
century
acts
dcic
dcrg
ïapbriew
namr
jingtreishitom
dapoi
paulus
naresh
169
orpha
256
253
rongmesek
mighter
edwin
kyntiewborlang
176
pyniabynta
saiphla
balakhwa
jarf
ïarisa
reming
nongpynlong
216
sela
seed
asam
ïalehkmen
236
fresh
272
dancer
rymbong
motdur
hering
khawiang
khawlang
lamavilla
mlfoa
##pyrthei
lyngkdong
jingpynkoit
nonglwai
achar
krishi
mawshut
settlement
dict
diwas
hamren
crop
crore
muskut
elath
kajylla
societies
jingkynshoit
354
352
mawpen
mawlonghat
##jib
##jira
##riak
##charjee
##meghalaya
accred
##ugram
pushara
jingshongthait
fall
giz
ryntong
325
##other
merit
mercha
merger
soft
phlangwan
bahasem
cardiology
laiñgut
malakhi
##metre
tiwa
proceed
##tical
jingїaid
445
443
tonne
jingher
limison
wall
jingnangkiew
395
390
480
ratna
iashongkha
communitty
jns
birla
300ngut
ajsu
structure
##sterfield
overwell
bhutia
bhuiya
midwi
nongkhyriem
##ronikl
lottery
bert
awards
shapni
colon
cherak
9856
chandmari
checking
moolaman
jyntru
##lalitha
khimusniang
##114
kashyap
8794
ferti
talaiñ
linus
8974
mike
kudi
kudeng
suspen
04b
gurgaon
gurugram
raksamgre
mathei
wireless
prosec
desk
pyrdet
kawut
technician
would
litereshor
nrl
jingkyiuh
homes
їaksaid
blast
jingpyniasoh
wanglet
nirmal
knockout
pyniasyriem
habaroh
endor
bhattacharya
guidance
disability
sohkymphor
mawkynbat
called
mipf
1908
samaj
pharmaceut
##roved
nongïalehkai
mawjynthut
bulb
toki
restoration
pynshngainlang
jingiasngewpher
sanitizers
suppliers
explor
nongshangkai
fighting
royalty
bymsuidniew
umtlieh
robinson
lodge
pharoah
jingsted
hashabaïah
lumkya
wahthapbru
fsl
lewis
dodn
mustoh
wanteibok
wholesaler
jayson
chakravar
lions
pccf
jingphawar
umjaraiñ
sspts
pentec
roket
robibar
iatakhuh
kharbudon
nuclear
huhuapara
sankardev
architect
observ
jayalalitha
mawiawet
nikodemos
material
hashabaiah
umkyrpong
banrikupar
leonard
improvement
rebecca
phensedyl
chahlang
jengjal
weaving
kumhba
jingpharep
negetive
chutwakhu
elisabeth
transparency
leningrad
mawlyndun
epidemic
noida
kapoor
nohkalikai
japanese
mawiaban
commodities
lawbyrtun
greenergy
vatican
orphanage
merchant
moolamanoh
5pm
aes
ano
away
bpf
btep
cfc
cnn
dwis
eb
eff
eval
ebormi
fed
fee
furlong
gai
ghar
glc
gerv
hoh
hul
ill
ioc
ire
jv
jone
jris
ket
kle
kone
kleiñ
kek
lom
lsn
lhuh
lwait
mri
miar
nw
nil
onel
pts
quran
rist
rdin
some
swad
syngkhong
skhep
ted
tdp
tyns
twin
ubi
wages
xa
yhai
yatra
zee
##lyne
##uer
##som
##srang
##swer
##sery
##skhor
##ware
##cm
##chat
##pna
##pule
##grad
##gium
##grik
##їeng
##rie
##mg
##muth
##kba
##kli
##kpoh
##ksiar
##jad
##jap
##04
##ïur
bajai
baji
kishon
kiriat
lav
lax
ïakh
ïathoh
ïania
ïadie
ïadat
ïakhleh
hawei
hawa
haoid
##halaiñ
jingaidaw
##aret
##araiah
##angar
nav
nabon
nathana
##laban
pynī
##taking
##anan
##anjan
khb
khñoit
##ume
shaul
##enant
##enza
nongar
nongma
nongiat
nongmali
nongshillong
donny
##yrdup
##utenant
##baal
##back
longïng
mynmied
iasngew
iabynta
iashun
##khit
##khloo
##khshad
##riya
kynda
shiang
##ulder
##eson
##esday
##omai
aidem
##kaya
##shuid
troin
##ihon
wann
wanshan
##oiler
##dabad
hapneh
kyrbom
jakai
kamet
jingiabun
jingiaphet
jingiashrut
##stea
##oki
rina
rimu
riki
lehrukom
kitai
aristar
arbnai
##opgre
sajar
saïan
sahani
##inath
mao
maon
massa
prei
prai
mawiam
mawkhang
mawnar
pab
panel
payment
sngewhok
phen
borlang
borbh
cov
##yngkhiang
##ssco
jingbrai
shua
jingpynsniew
umla
umrang
umpung
umsal
umthe
umlath
biangtam
kyrthat
bymdonkam
##ladesh
stodar
pyniathoh
banjur
bansharai
bankhraw
banwari
too
togan
jingthuh
##haroo
raikut
iingwai
ismail
##toda
pynsgew
pynsyrtok
sangh
comms
lyngdohsohblei
ksieh
imson
imsuk
imsaiñ
riewbha
peitbeiñ
kynthuplang
mdcs
shitniam
sohktung
ïohbor
##shonhi
ïingshong
pynkhien
chol
choice
dkhotmet
speed
batuid
batlot
battery
##iating
##iathan
univ
satpat
##ubon
jingtes
madre
sanmiet
sanium
iapmat
iapbriew
amet
ambed
wahlong
nongkoh
thohmat
thohshuid
matharoo
bib
pynjlih
poonam
nongtreikam
##akan
reuel
rekem
jingsngewtriem
jingsngewsarong
ktiensang
diengk
diengpha
devan
##ittuh
jingïad
jingïalong
##sey
khliehmawlieh
adah
admi
##bita
jaiñjot
jaiñtap
jaiñsop
apphira
kdat
pynlwait
andra
##urab
lystra
iaieit
jerry
plot
##abeh
nongpdiang
been
bell
moa
baiwai
sumarlang
##kito
jingaiwai
jingaisngewbha
##loit
##logue
pangmet
bluit
##tance
billy
pynring
pynrben
thangsning
jingruwai
leo
lek
leop
##lure
saiñha
synring
##arav
judo
18ngut
1872
seibor
seiborlang
lymbr
nongshram
saitmet
nors
norok
pohshnong
##door
memphis
khongtiang
khongbeh
gourab
narieh
almari
taber
taana
tyrshi
corne
officiating
kompitor
nog
prince
248
iehnohkam
##torney
saiful
jarmuth
50hajar
ranchi
nongpynkhiah
syrtok
trick
diver
212
tulba
##bamah
seboi
224
brid
jingmihpaw
khyllait
hoque
ennocent
numbers
nongiathoh
dobasi
276
babul
ryniot
283
junction
rajkho
simple
nongtar
##gash
heres
ml10
lyngknot
##neser
sephar
sephanaiah
##fornia
dienshonhi
niom
tapan
johnson
sabdi
onan
##hou
##nction
##jubab
donborlang
jorabad
##arious
arpakhshad
praful
jrongkti
pynshongnia
bosrah
csr
nongaiksuid
philom
jingshongsyier
facul
niewtang
atul
attorney
serial
kubor
ahuja
ronal
punji
sonstar
radhon
firm
##ptomatic
khohkad
elioenai
##quest
drive
nursery
betha
427
tantia
khynlung
sheban
shealt
jingїas
rbpm
mawryngkang
thin
pigg
paswet
waha
wasan
ittai
travel
##chiat
mominin
dhmo
jinghiardor
chanda
##ways
statistics
jabbok
transmission
cars
nongthawaiñ
tuesday
mcic
##kynhun
silpah
hadudh
51kg
ajmal
dmk
customer
taher
penuel
jingwadbniah
468
gadew
icp
pappu
daiñkuna
luksan
īalade
sympli
topas
pynsniewdur
recog
570
8575
helen
exams
slow
phuhmat
netwok
lurstep
##burg
##kano
kopili
jinglumthup
obil
ferlin
772
690
##khola
bikram
aapsu
##usib
contractors
ahikam
ahinoam
sidney
rehman
jingpynkupbor
signal
ñianglartham
failure
handic
handyman
##oniom
desmond
girl
girgash
ghpa
graduation
dkot
nanda
promising
##bniat
mookyrdup
jingtehlakam
umlyngsha
sibmah
myngor
investig
athens
entertaiñ
slep
itanagar
download
epaph
homer
venkaiah
lachumier
mallang
##ected
dialogue
kalwing
nongpathaw
syngit
railways
witson
jingbatbor
steel
mokutduma
ikoniom
libni
mawliehbah
rlssco
barapani
seventh
nongsiatkhnam
benedict
##kaliar
##geneous
jeevan
rhinos
supporting
majority
aspatal
balious
chaudhury
disciplinary
communications
faiths
їasnoh
barikor
beauti
enosh
nongdaju
convocation
pynsuhjer
badariti
badarpur
##pynskhem
warsanlyngdoh
attack
conditioner
wako
dodo
guidelines
akhaia
akhaïa
salahuddin
pynlehnohei
sippor
creative
oreb
##tagong
activities
kattne
mawthawpdah
umbiah
syndakor
female
habilah
kathmandu
laitmawsiang
vivekananda
oholibamah
oxford
hyniewtrep
lymphuid
pynkhlemraiñ
shirynieng
basumatary
dubai
ialde
breweries
nongiasyllok
lieutenant
wonder
arrest
sampling
tyndung
invitational
jagiroad
craft
##colm
mootyr
instalment
asekah
illegal
umkaduh
steward
ammendment
raghav
california
follow
broadcasting
baichung
martamlin
jingbymlehhok
lebiathan
autonamous
hoglah
eliphelet
ghdstea
khamakha
jingsospon
manjhi
spanish
embassy
phlangwanbroi
aesop
gervasis
ireland
kleop
kiriathaim
nathanael
rimuliang
mawiambei
umlathu
banwarilal
satpator
diengphasi
jaiñtapkhmat
taanakh
faculty
khohkadun
shealtiel
piggery
630
730
930
aec
alem
ajing
ashish
boh
bthong
cast
dymm
dari
edar
eva
emanuel
fb
fies
fati
gc
hh
hong
hyr
hrit
hyndiat
iia
jja
jlew
kb
kel
lynt
mct
msa
nyn
nip
nku
omar
onam
ping
pia
puc
pond
piad
pema
pihuin
rawa
rcc
sve
swang
t7
tlanding
tyli
vp
viv
varan
wia
wna
wond
zaman
ñia
īoh
їadon
##asan
##aji
##ued
##yam
##yiad
##weit
##wot
##cch
##hei
##pisa
##gl
##gno
##dip
##rwai
##rose
##kei
##ksp
##kyndit
##kuiñ
##5ngut
##jyoti
##bynniaw
##8ngut
##ïai
##ïoh
kaa
kawan
kaїap
bahar
baling
basian
kis
kibor
kiwe
lato
lathong
##ynk
##eim
ïang
ïanga
ïathaw
ïabynta
ïabud
ïasngewthuh
haro
hajngai
haneman
hasina
##ingkata
jingar
jingtr
jingtad
jingthait
badu
##angi
shuth
shriak
##organ
##uhroit
natal
pynnang
pynbaptist
##atty
##athaw
##tab
khuk
khiar
khuti
khilon
khrik
##umpih
ngos
shak
shahi
shabneng
dalai
nongak
nongkharai
dona
kumu
longїing
##ynrem
##ynroi
khadi
iadem
##thor
##thombor
##khei
##khra
##khriat
##rint
kynn
kynbad
shining
##lilam
aiksuid
##kala
these
thlun
##shur
trop
##etary
bryan
wankupar
##oine
##oilum
##marit
##aleiñ
kami
jingiabeh
jingiakhaïi
meta
medan
##stha
paidba
lehburom
jingpy
arma
##rally
sala
sabah
saving
rangsak
rangsamla
shahram
maa
marshiteng
marpna
mawkhap
##donesia
##treh
##ynnah
jingsmiej
##yllieh
##phei
##phia
##phyllut
samborlang
paris
parsis
pag
jingibit
sngewdonkam
sngewthait
sngewjli
phoh
bork
borah
borghat
disab
khamrit
shongbriew
shongbasa
##iehrup
syiemsad
jingbeiñ
jingbsa
jingbtin
jingpynphriang
nangai
nangleh
umngap
jingmon
jingmeh
##halan
##irth
many
manka
mansan
manual
treijam
bnp
bnang
sahram
comfort
khning
stoiñ
style
ktei
thaiñu
thaiñbad
banisha
jingthrew
jaitniam
raieh
raishan
assets
##ntia
surma
pynseisoh
sangkli
lumni
lumdait
lumumpih
ksoo
riewhok
##ymmaw
##chell
##mua
laitsing
sohmarit
##imaw
ïohlum
counsel
kharsh
kharbabu
jingdaiñ
1927
tamsneng
chiehrup
spd
##shilum
##jarin
saty
jingthala
dohim
sant
sancle
amri
amsu
wahrah
wahrew
nongkhai
nongknia
mukha
mukti
matric
matïong
bima
##mawia
pynjam
pound
##manir
##mance
relig
hehpaid
diengiong
diengsy
inno
indonesia
jingpangnud
jingïaph
admit
##gether
jinglyngkot
inglis
pynlur
gela
lyhuh
lyïur
bakli
bakin
nongpy
bear
move
mobai
jamia
##lawar
kondok
pdengshakap
jngut
thungdieng
suka
highlander
15th
mpro
##tanu
##tany
##sohra
thangbuli
left
nongbei
nongrimmaw
##aswamy
2024
##ccc
anlc
basai
basem
dakopgre
kyrshanbor
##buhai
##night
courts
18th
jingiatem
runner
resign
theatre
ijng
turnia
kjksp
khongwet
nari
nartap
alban
takhuh
252
scri
sngapthuh
sngapjar
##aghat
milan
harukom
harmon
terra
dongwah
agri
agness
noon
nothing
bsiang
241
angle
##lick
colleges
malyng
malcolm
puraskar
mawsah
hynniewphew
tribu
divine
219
jingiasuh
saro
sardp
nongkitnong
saitjaiñha
artem
234
hoo
enri
main
pasture
fred
khadh
salary
tarzan
sops
sopsop
000ngut
pynmhi
##porary
tape
##minit
pyniohnong
jhu
jhd
crys
munish
pynsahteng
##uition
universities
jingkynthup
jingkynjoh
shilok
jingbuhrieh
lyndum
lynngoh
pual
##council
3200
##entic
mental
menbarim
mera
magistor
chad
jingïashun
soon
sourav
gregor
jedaïah
ronsing
laiphewjait
shanbok
iarieh
dharam
sonny
charan
charlie
advan
suhsieng
pmo
##aline
upd
dark
dareng
darshan
heads
339
331
mahes
bety
365
363
sections
jingїathuh
jingїarap
jingїapher
transportation
rbdcc
jingisnei
pynstai
starwell
scientific
thadrang
olive
jingïakynad
397
thappa
iashongkai
##iakren
##iakhih
05k
##jingtip
sherborlang
ssb
golda
carona
470
organisations
ripnar
iawren
515
520
##gration
peniku
orderly
lotus
jump
1961
berry
supplementary
shaphat
pahambir
pilot
pilgrim
##malai
cherry
indigeneous
pade
iatehktien
jinglamkhmat
pyndenglawar
##iship
christians
suidnia
640
##kola
rclp
cursing
guru
gurinder
added
wellborn
islamic
electrician
persara
ekta
090
rumal
nongjyllieh
umpleng
999
maharaj
files
arrears
puhshilum
tympai
tynshaiñ
lymbit
mawtneng
pmgkay
destr
ghp
chetia
iakhñium
mendih
jingpynjynsur
bandi
debbar
ekhd
knight
bipin
entertainment
ibd
jadoh
animals
jaly
youroin
їakhih
їakjakor
streamly
freestar
jingpyniapher
wangala
laski
operators
dialysis
masks
ganathan
rodborne
offline
syngkhlieh
##endrowell
nsf
swacch
pratap
amaraiah
amaraïah
amarinder
lumpyllun
sbbl
visit
fanatic
jingїakren
hilarious
iakitei
kyrsoibor
rawat
##tilla
1841
scorpion
jedaiah
boina
excellent
jenny
gmch
psychiat
banrila
wholesale
qualapaty
kenchs
publisher
christable
others
їatyngkhuh
mawthung
scanning
committees
khongsdir
saints
eugeneson
recording
athletics
sneha
aloysius
umpjah
practice
hassan
##athic
syndagor
londoner
covered
charak
llb
analyst
honorarium
cubs
margareth
utilisation
rosita
physio
kindly
barobor
jingiakhluit
almanak
encep
aisail
jaiñtiapur
talukdar
boitha
jingantad
pupils
performance
associates
rathore
lyngngun
trotter
recommend
package
phidalia
phlowing
blossom
chowdhury
nondeiñ
fertiliz
jrisaleiñ
hawakhana
borbhuin
norseri
dobasipara
rajkhowa
nongtariang
philomena
kleopas
fiesta
fatima
hrithik
sveep
kaїaphas
rangsakona
lumniwar
lumdaitkhla
chiehruphi
sancley
religion
diengsyiang
kondoktor
anlca
kjksps
915
aer
bhim
cun
cti
clas
df
dut
dth
dhai
dho
etam
fd
fol
fare
fill
flag
gk
gum
geh
gris
gators
gedor
gihon
huk
hoc
hban
hoit
hui
hoph
iq
idon
ihun
idonkam
ishan
iron
ibn
ikumba
jhan
jts
kos
kvk
loh
lro
mf
mlo
misha
nen
nst
nian
noin
oni
orion
pont
pfc
rate
raph
rngat
rngaid
sba
smen
sbm
t2
tus
tatien
typ
tuition
ug
ulah
ublei
uday
wen
waw
wet
wol
wed
wrong
wif
yc
yan
yoris
yaweh
𝑘𝑎
##abah
##oun
##uity
##uages
##sung
##sch
##ski
##yiem
##wiat
##cal
##hes
##huri
##poo
##thai
##tohkit
##nim
##gt
##gong
##gai
##gil
##dhar
##duwai
##duit
##diction
##rm
##ror
##reph
##ryngkat
##zed
##mk
##mort
##fin
##kv
##var
##jyr
##bloom
##xer
##ïam
kare
baisha
kii
kida
kidang
kism
laba
lajia
##ongeber
ïashad
hahim
hadu
jinge
jingshan
jingkad
jingthad
jingurlong
badhok
##ares
##ores
##orce
navi
pynlamwir
##nestar
khuh
##umbah
##umdar
##iac
shading
shamoit
dall
dagon
##ylia
nongwar
katlah
katshaba
##hills
deilang
##isuk
##eroth
##emon
ongu
myntr
mynken
khaï
iaf
iabuh
iakhalai
##khlur
sngw
##rikam
kynoh
kyntip
kyndan
kynkok
shirup
bahurim
aida
aigu
hin
hira
thynrang
##shyr
##shym
##sheptieng
##shngain
sorka
trong
##etri
hynroh
brington
wanbor
wanbha
wanmi
##mark
##marwei
##alum
##sident
kyrdang
jalap
jahath
##idia
jingiaum
jingiashah
jingkup
##oker
rice
rijoy
paidiapom
lehsniew
##appa
arod
arpad
arear
arjait
##ray
##elu
saye
rangs
rangmen
rangïaleh
##inion
dangdon
dangwan
nee
nefa
next
mawmang
##ynnud
shime
shimron
jingsng
jingshi
jingslei
jingsaph
##phrey
same
samar
samuj
khloo
pau
payal
pahath
##ndor
sngewngiah
##nab
pheiñ
katakey
bore
cost
syih
dishon
##lehnoh
##lehrain
khambniah
shonglang
shongsyier
##iehnoh
bunshah
##olsor
jingpynkha
jingpynjakhlia
nangtrei
nangalbibra
ladan
umiong
doreng
kyntup
##ican
synlar
bymneh
tnk
jingjlan
manai
manda
mandr
pynkreh
pynkyntiew
treibha
treihok
languages
thaiñnong
todi
together
jingthnum
jaituh
assa
iingsaw
iingskul
iakyr
surak
pynswai
pynspong
##edic
sangram
lumpdeng
lumthari
khru
iaidkai
imran
##ching
##chuk
##chram
##chynrum
convid
contai
##istha
##ongrai
kharang
kharmih
kharjarin
##tional
1900
ïingbasa
##wanmi
spoke
jingtorti
##pohjar
dohmasi
sanki
shipiah
iapngar
iapyrshah
amjok
wahrit
wahlakhiat
parashnong
bikash
pover
dienglieng
diengkot
jinglehsting
deoris
pdianghun
inject
iewdie
teiskhem
shempap
jingïath
##ments
dura
durut
addar
routi
ingskul
budien
budnam
lyt
iaibteng
baksa
jersey
external
bebai
moos
jame
##hikos
temporary
##jac
jingaipor
jingaikhublei
jingthohbria
suz
sukh
proctor
##sohsaw
pynthi
pyntylli
##isher
pynrulong
##nongsai
buittuh
##asuk
##cco
anca
##daris
##darshan
pynïatylli
elish
##lari
lakyntiew
tymsen
nationalisation
risai
risiang
riskhem
1860
cirl
runs
rames
suphai
ïapyn
lila
liner
mosa
turn
turiap
hnym
##road
khongsngi
narbong
alber
alvi
taek
mylliemum
25m
boulder
rongdop
mangu
milim
milian
harp
hard
haruh
edilbert
pynduhbor
##elly
##elling
noti
priang
priva
171
iasdang
hyp
##licious
saini
saihon
korek
muga
jari
sibe
ranjeet
peka
jingkheiñlang
shadwell
rupangu
divorce
mawkoh
mawkaton
saron
sarita
sea
seg
##boy
##hataiah
##raine
asriel
asubah
asrikam
skhemlang
kyla
##terfield
231
hossaiñ
beiñg
enan
tengteng
jaktung
jingkiengjri
purkaya
stations
kmenlang
##eav
roypar
jyrwait
juniper
pastoral
dancing
264
268
motto
405
nongtymmen
heroine
##slation
295
297
29th
##nesaret
sephanaïah
kilogram
nonglyngdoh
pynbhalang
acres
##halitis
##asagar
pradeep
translation
timna
newsp
allow
##tenai
##jaintia
##umala
differ
hannam
quarters
tukhikos
postmort
##jubor
jhia
palong
musta
muni
muncipal
superstar
mawpyllun
lotan
prag
lanosha
jacjh
affili
pynshongkun
452
princip
niak
meremoth
tyllli
attest
sered
khapnang
soomer
dambit
moreh
guarav
hushah
hugh
379
radha
projects
markynti
khohnioh
utpal
swap
swgh
manipuri
80ngut
rtiang
tile
tiber
tilak
procur
drip
eleven
364
##welson
429
425
##kenas
sheshan
341
343
pyshah
387
44ngut
limestone
wajri
##laitluid
cmp
authentic
dhup
communist
418
051
ssm
chanchell
mawshynrang
mistri
audio
caro
carol
kanpur
kharpan
mcab
##tark
##taroth
seld
ajca
opinion
sohpieng
sohparu
rishon
bhopal
466
ïasdang
shallam
biswanath
nongkhlieng
makia
bashngaiñ
dikon
dikki
nonglehkam
sakwang
icym
key
##kyrpang
beryl
bernongsai
niangkohnguh
symper
srgt
funds
##gious
##acity
jingïatip
hanokh
engedi
ashtaroth
khaitpohjar
undertaking
safi
grams
840
##ooa
##sical
talk
talmai
gender
thiatira
suitniew
biswajit
trafficking
farming
edition
ahio
ulti
##neshwar
eleasah
lumdiengngan
signature
##posium
capacity
jattir
note
failed
lymboit
mawdiangum
ml06
basawdong
jingbanbor
nokrek
ïathir
srinagar
mookyn
louis
ekhlt
detection
ayurve
scotland
sardis
phyla
everbloom
return
showroom
epip
equival
mallukh
annex
heimonmi
##shyam
headquarters
##odakh
augustus
meshekh
parosh
dadengre
ïatehktien
ñiuhkhlieh
agents
titoss
yaba
prophets
mupyut
ruser
reference
ubnai
bulls
krobar
vanlal
nonghiarthma
derbe
eshkol
eshtem
jynthang
asarel
ukraine
pjiar
journalism
jingïaburom
explo
jmb
umjak
ml04a
ml04b
austria
##guard
assign
cherishsterfield
shephata
shephataiah
acids
gopinath
umtngam
evanfield
їatiplem
wandashisha
ariokh
orchids
tigris
##ryngkew
distinction
nongiathuhkhana
moopun
mawshabuit
benefits
seeb
##rymba
secreat
mawkhlieng
practical
jingphaidien
discover
bigbai
installment
orissa
varun
adventist
thapbawa
pentek
umblai
assurance
mobilisation
achie
please
argentina
oholibah
esiongeber
uidai
reenborn
myliem
##geddon
lashisngi
hagrit
occupancy
cloud
temperance
falcons
mysiem
reebok
bruce
jingpynitynnat
abishur
stevenson
bapaka
prepaid
gratuity
onderson
peleg
khelo
kyrwep
rangkynjai
maraika
tarsos
pmjdy
chandranathan
stanlywis
ebedmelekh
longrynnieng
myngkathiang
muthu
sivasagar
kyrthlep
metrology
ataroth
eropleiñ
arthur
jingpynwandur
tobacco
jerimoth
nongtyrnem
including
iaiñeh
kwator
utilization
##ground
shepherd
jingiakhajia
##uppim
kharsohnoh
apocalyp
dictator
blasters
chakravarty
konekshon
ïakhñium
umsalait
amethi
ambedkar
cornelius
sepharbaim
bethaben
nandakumar
entertaiñment
crafts
mootyrshiah
mctooa
piadbah
swangre
armageddon
disabled
nongpyiur
basemath
crystal
ibdlp
jalyiah
mishael
kismis
dalloi
jalapang
sayeed
samujjal
mandriek
poverty
routine
milimitar
privacy
sibeon
chanchellor
ayurveda
eshtemoa
shephataïah
2pm
611
aai
ane
aia
aiad
bhi
bura
csp
dul
dare
diph
ez
eoi
eure
flesh
gha
gag
gill
hiam
htta
ion
ibiang
jlaw
jian
jpm
kki
kreh
koid
lia
mv
maid
mung
mulor
nty
niaw
osd
pduh
piwell
rue
rihun
sj
sion
sway
tud
tdam
taiñia
usha
udal
vad
vers
vety
wc
wap
wieng
waidong
їar
їatai
##ev
##ekhaïah
##lm
##lla
##otic
##oiship
##uem
##swo
##yar
##yat
##yoo
##yush
##wam
##hop
##pun
##piang
##pyngk
##pret
##iri
##ile
##tush
##nieng
##gia
##dkhar
##dish
##dua
##rngi
##zam
##zone
##mes
##kath
##krem
##vii
##jut
##jhar
##bing
##ïad
kara
##ngiet
bashit
baphra
kian
kilad
kibriew
lata
lakha
##eiw
ïabeit
ïabiang
haf
hair
jingum
baduh
shock
shrut
##ors
##online
nabynta
nassar
##labh
pynn
pynngiah
##neer
##ando
kho
khiang
khud
ngea
##iapher
damon
##enn
nonghi
nonglong
nongsning
nonghali
nongchram
##yrwit
##ehous
##utva
deiti
deimon
##ises
##isdiction
kuma
##ursla
longheh
mynri
myniong
mynraiñ
##ynraiñ
iabeit
##awat
##awati
##khwai
##rific
shih
shilot
##lita
##ulman
##yngngian
##ymon
##esor
##omba
airam
aibok
iohmap
hip
hid
thynr
thring
thngian
thliem
##shri
##shub
##adha
##adbah
##adwar
sorbar
##llitus
truc
##ett
##ethan
pathan
bariew
barthakur
bren
braiñ
break
wanpher
wanshong
wanker
myntaka
##idul
##idants
##idental
kama
kamdon
jingiakam
jingiamane
jingiakhleh
meen
mellitus
##start
jingkop
jingkhate
##okgre
riwan
rinal
porla
porsoh
jingpisa
arlin
##ralin
##opa
##opolis
##opathic
sakha
sach
sabit
salim
safe
maken
markordor
marley
##upper
pram
near
mawu
mawñiuh
mawdul
jingsa
jingsaw
209
##phuli
pham
samir
samiam
paed
pashang
##nder
##ndra
sngewtha
sngewsyier
phuk
phren
phlei
phrik
bormet
colum
codi
syed
syiap
krensang
##yngkut
##ild
jingber
jingpynmang
ladweit
umlang
umpher
jingmyn
dorbah
dorkar
dorji
##ico
syniang
bymbiang
##iria
meghalayaonline
mani
manason
pynkie
pynkyllaiñ
langiong
nongiasiat
nongiamareh
##eiñg
saheb
tipsngi
comission
pyniarap
banlak
bansal
sky
skut
skendrowell
aiñguh
jaitbriew
rain
kongkal
asses
iingkashari
##hunai
poin
lumbyr
khrek
shisyn
riewkai
##chud
lyntiar
tynghor
laitthma
sohlap
##phida
sawlad
sawmill
ïohkam
##jela
jaijai
kharhu
kharduit
kharrymba
kharphuli
kharhunai
1936
1939
##wanrah
pynkhun
##yntai
##ngiar
##ngiat
##kita
##shongshit
lapsa
spare
speak
snur
##shine
bateri
unity
unski
satah
teen
kyrpat
nongthombor
##sport
sanjib
iaphai
amsk
amlym
ammiel
amkhloo
##nery
nongkiew
nongkroh
pynshet
mathi
bira
bilad
biology
reli
rector
reju
reaching
jingsngewniam
jingsngewkyndit
diengpyngk
emper
jingkhum
10snem
deki
jingshahkem
inta
injur
instru
jingïalum
pyniaidsing
rashtra
adin
ksuit
hynñiaw
jaiñki
apartment
roger
rothel
nongsuh
nongsneng
nongsiewspah
pynlum
plenary
nongplie
exer
12000
wada
##raman
jamil
jamynrei
jamatia
kontr
304
30snem
sumari
##range
mina
minutes
jingbymïaiñ
jingbymiaineh
fore
suo
sustaiñ
niamtra
jingrap
##aswat
anc
elvis
courses
repai
repod
rupari
monica
jingiatur
running
perform
constituencies
raman
nongshlong
ïapngar
iatan
namsaw
lineman
norman
abd
abuse
pohthaw
pohsnem
turkey
kjwa
blocks
goan
altern
257
25snem
boat
bout
direk
tyra
tyrsa
tyrtho
jingiohkem
rongpi
##istration
milimetre
harv
termin
##isterfield
kompolsor
novel
peters
prior
jingiapoikha
247
pyniad
pyniajan
pyniakhleh
saisiej
nongïaid
pynthep
mawsyntai
507
nongpyntip
nongpynkylla
syrwiang
lawbn
mawkduk
sarusa
227
jingmihnoh
235
238
jingpynbud
howard
enrol
siatiap
##uala
##verage
maia
ïakynting
##shipai
does
doff
dolly
rynkat
285
265
261
266
262
406
40snem
jingkhaїi
here
khaweit
##ande
##pyrsit
298
293
##neswar
jingpynkulmar
sepsd
rimiki
ñiewpoh
ñiewtang
##lotte
##pore
revised
iamar
iamai
krish
ringnia
timing
allya
ques
##iversary
solo
356
mawpyllon
sunita
therapy
##sco
50000
##ensing
chibra
kms
kmss
fav
323
atlukhi
ribon
magog
khapmara
sook
ahmad
moral
##embirth
iarah
sonam
interstate
charg
charlotte
huss
376
1974
taken
appear
suhlang
suhjaiñ
hopkin
##ekhaiah
ssab
woman
upload
334
camer
camper
eleka
423
days
##pynshngaiñ
jingїohi
jingїabeh
7500
pythei
jingpynriam
446
contacts
classes
micros
##rakmai
milai
pasw
paskha
washing
hebrew
ithiang
##chin
kenan
anthem
communal
jinghiarthma
##iakynduh
##jingkieng
sherwood
jingïohthiah
436
jingsahkynmaw
williamson
їohlad
##lusion
825
carr
carrom
carbine
mynshemsnem
daily
daiostar
##walieh
iawlar
iawrod
teams
ryndi
penin
ïaseng
shalma
biskit
##ization
dikshon
icare
tiniang
beraiah
beraïah
##iaseng
symposium
antiox
580
bajlan
bajrang
##ñiun
cherity
cheristerfield
helper
kynrandien
##nyson
760
moola
621
msme
jinglamwir
grammar
confident
jynthoh
400ngut
kynjatshai
873
bapyrkhing
linter
##ywood
##kato
dwarksuid
mithun
mittal
ïaiñeh
7413
04c
pluhiing
reding
goraline
hawks
telem
longkni
electors
editorial
735
pynїadei
pamrakmai
american
reserved
sohkhliang
961
filter
below
##126
lasky
shops
pataka
decision
vecs
sudhir
promot
iakheiñ
iakhublei
bonus
kapil
shampoo
abhijit
organizations
momento
pylait
nongiashimbynta
false
jign
holding
hollando
moonstar
mpscb
jynreiñ
kickstart
pongka
jingiarah
jingringmraw
slr
jalong
##370
laborious
chemi
chandrachud
novembirth
coordinators
rotary
issues
ftt
diagno
##rynjah
riewshukor
nongsaiñdur
dadenggiri
steve
stevie
kabala
kwor
markaz
mawlangwir
circum
standards
sbiak
influenza
rabbit
minimon
anniversary
brigad
alloy
napid
nature
dunai
##conian
rashtr
##linder
officials
aristone
knup
wjc
dert
facilit
fasttag
violence
astc
ithamula
pjiah
hymn
ppes
aspata
cherishterfield
counsellors
crimes
rewak
christabell
nongsohphan
nongshohnoh
nongïashim
cattle
nongphyllut
diosstarness
qualified
riewdonsap
salahe
mingi
pathiaw
holiday
ujj
jingpynsahteng
mooralong
demonstration
vivekanand
ryndongsngi
chittagong
epfo
jfk
##465igp
umshangiar
khongkliam
lamarai
proposal
dainthlen
methodist
maurice
shekanaiah
shekanaïah
barrel
mawlatbah
bhubaneswar
digvijaya
qualifiers
zebra
quallapaty
mawpyrshong
aleksandar
auxili
kolasib
dearness
doordarshan
homoeopathy
joinriwel
bongaigaon
cyril
debasmita
umsawnongkharai
oberndor
visual
eighth
contribution
bamklop
substances
aktres
strawberry
jingnion
##apped
tangkro
jingpynthame
consolation
contingency
pynïabynta
rephidim
accreditation
colonel
kudengrim
pentecost
xavier
shianglong
univer
nongkohlew
leopards
lymbrum
diverland
bridges
wahadar
handicapped
beautiful
satyendra
amrita
##manirbhar
harmony
malyngkhoit
debbarma
scorpions
banrilaburom
typist
jingeks
lyttan
different
hannamon
postmortem
ekhltwa
maraikaphon
stanlywiss
aiadmk
eureka
jiantia
ntyu
udalguri
trucks
mawdulop
paediatric
sngewthamula
ladweitang
lapsable
amsku
rejuven
reachingson
diengpyngkiang
instructor
lawbniap
sarusajai
antioxidants
oberndorf
1klur
2hajar
3hajar
3mm
5mer
7mm
atr
aee
ater
ajh
athen
abarim
bg
bv
beser
bimal
clad
crem
cult
cpm
cutta
chalan
dv
dna
drin
dken
esp
eder
flor
federick
framew
gl
gp
give
hf
hia
hut
hunt
iei
ibieit
jiang
jyndong
kna
kospel
kuki
lc
lynn
logn
mol
mim
niv
none
npf
nick
nfu
nrega
oo
ono
pit
pid
pith
pvc
rneng
rui
reid
rynniaw
rhong
syllei
tl
tymmai
tmoh
ussa
uasst
vk
vham
very
vera
wes
yah
yash
īap
īano
їapher
їehnoh
##eet
##asim
##llan
##lestar
##oor
##olah
##olin
##uber
##uate
##ushal
##syngk
##yawa
##wh
##wdo
##cp
##cit
##cision
##hos
##pia
##pil
##peiñ
##plo
##ix
##ific
##ikap
##tent
##ghal
##їa
##des
##dda
##daiñ
##diah
##dawa
##rf
##raid
##rata
##rients
##zo
##zha
##mem
##mur
##kang
##kynt
##krim
##klet
##via
##john
##bg
##best
##bitar
##bsah
##1ngut
##7ngut
##750
karam
##ngei
##ngoid
baat
baish
bald
balung
bapang
baala
bastet
bañiun
kiab
lac
lari
lash
lant
lalah
lazar
labet
lakhan
##eia
ïatei
ïabun
ïadem
ïakane
ïakhaïi
ïakhawai
hatha
hahu
##ingya
jingî
jingkhun
##arat
##aris
##arwell
##armed
##araim
##aimile
shng
shud
shyngk
shnet
shoin
shrup
##uhkjat
##onica
nak
naya
naneng
nabi
nahath
naamah
##lant
pynsha
pynshang
pynkad
pyniehnoh
##atar
##anza
khos
##umiel
##umiere
ngang
##iael
shaal
shanam
shariat
dad
damin
##ences
##amit
##amoit
##ampani
nongshilliang
deibor
deiphi
##iser
##isim
##issa
##eria
##urt
##urappa
longkynthei
mynksan
##ynrong
##ynrap
khas
khaba
khasei
iadep
iajngai
ialympat
##thers
##khr
##khum
##khya
##riger
##ewan
kyns
##lix
bahun
##yngad
##aideo
##time
aipc
aidalin
##ephath
iohei
##sheh
##otient
trangblang
##kariah
shnnong
##etar
##etta
##etos
baryngkhiang
brup
brdc
brïew
broiler
phiban
wanshai
wanjia
jyllaniam
##alm
kyrdeng
kyrsan
jakhong
kamsniew
kamera
kamala
jingialeit
meon
measur
bynna
##stong
pyrkan
pyrnon
pyrshing
sengjam
jingkyll
jingkangar
##render
riba
paidkar
paidbad
paidïapom
lehmon
porkut
jingpun
jingpulom
##hain
##ape
##massar
araimile
lyngai
##rack
##udai
rangmaw
##ylliat
maso
maïa
mahalal
mafia
marshi
marble
marbl
##ipur
dangiaid
dangiai
prc
prais
neta
##athud
mawra
mawmih
mawber
mawniam
mawkap
mawthew
##dient
##ikit
##trath
jingshida
206
##yllung
##phe
samiti
parent
pakor
pallu
sngewpoh
sngewjan
##leu
##leth
phr
phongrai
bhatia
bhabok
color
sykom
khamjan
khamheh
pynbu
pynbiet
##ilda
##osai
##oshi
##olo
##oliab
shubha
jingpynphong
jingpynpait
jingpynmynsaw
nangp
nangi
nangkh
ladies
umdieng
umtong
umïam
dorangre
##icia
##icide
bymkut
tnt
meghalay
meghalayas
##wain
jingja
manih
mandien
manly
mando
mantar
depo
deptt
pynkiang
##usla
treishitom
langbang
##eiñam
sahks
tipkha
stog
secon
thaiñpyn
bans
banai
took
##mihsngi
##dohnud
##haram
konga
assad
assisi
iingtrep
iinglieng
iakhaii
isc
isnei
surrender
pynsoi
pynsma
pynsyllang
pynsyriem
poiman
dress
drish
##rete
commi
##ceu
jurisdiction
riewkieng
riewdkhot
##iamoit
mynshi
mynsaiñ
shitang
laitduh
laitsoh
sawyan
sawlyer
##ongre
##thaïos
ïohbat
ïohmap
jaibynriew
counc
counci
jingiakdew
khnangba
kharmawlong
1910
1917
1925
1923
##0000
##want
chong
chronikl
thawdur
##odi
garoh
garib
spikap
snah
##shiwiat
##rimmon
##iatei
unrep
sattu
khmatam
jingtang
##stituency
dohbniat
sankhat
sanoah
hynniaw
amiang
ambani
kurat
##sabha
nongkylla
mukhap
matdong
matgrik
matthaïos
bian
##mawlai
##mawphlang
##jpur
poland
potas
janong
jantar
##mani
reform
related
request
jingsngewrem
initi
insas
##ittu
kynrew
jingïamareh
raf
raamah
##seel
admah
adress
apborlang
jobab
role
route
ingsaw
nongthohkot
shynreh
nongsba
nongskhen
pani
panshandi
panmab
lybak
lypon
lydda
joplang
behav
jingkrensih
slab
heli
##hikir
308
##lanki
jngan
hospitality
tema
khrawbok
jingbymtreh
pyniapait
forms
proff
1100
wengnoh
popular
bangali
manosha
manohar
lejri
polic
anish
ansari
lakroh
basarong
nationals
##buel
ïathuhkhana
rupsi
byrngut
month
1835
1876
1833
jingiataiñia
jingiathalaiñ
centers
centenary
##hapdeng
seir
seiaa
perasim
ramia
ramdas
suph
suplai
iatuid
nampui
saitkhuid
resu
restric
schooling
##pathaw
abisha
abcd
kjip
memento
khongwang
khongmalai
golaganj
demetri
tac
tahath
258
25ngut
25000
botany
scb
loksabha
mib
mika
harar
dongmihsngi
pynremjur
agustine
noor
peterson
17th
jingiapyrkhat
worship
249
nakaliang
nakabynta
angkor
iasynrop
hyñ
##licitor
bankyrshan
ïaidwir
##vely
much
muza
mughal
malniang
malumala
tikri
jared
mawsyn
mawskei
nongpyni
trilian
divison
217
smith
mawkyntang
saraswat
sarephath
sever
##bow
saitjaiñjong
asym
asel
ampsra
kyan
237
mode
shangkhaw
hoover
beiñbsah
envelop
jingshaiong
inte
10000
##ffi
ïakmen
dow
doang
doeg
pynlaitluid
saler
salsella
jingshat
jingshaïong
babud
rynji
##suya
herbal
mawrynk
##pyrdi
lyngkniap
sepher
sephon
##landar
000klur
pynmiat
acute
bakhlapara
##former
medeba
kreit
tranformer
hattush
vihar
shongsang
diostar
johnny
##ktikal
quotient
hammed
cruel
riangdim
pynsahkut
##dria
pynskhemlang
##ario
praktikal
paikan
##charis
laishah
pynshongduh
accor
bosconian
nongaplai
chin
chirang
chilliang
puah
hindutva
iongshiwiat
fao
gift
sadak
sadhu
manahath
kumaraswamy
meron
sera
phcs
jingïashongkha
ishbi
soli
ahieser
jingbunbriew
jekam
ronning
pomreng
bethsur
706
jinng
sonu
cards
cardinal
cardiac
charaideo
homeopathy
guild
377
programe
since
uttam
swiss
hotstar
sniehkhlieh
erngit
specia
##dalyne
vinay
33ngut
titan
mahlah
pynthorsal
elealeh
bashaneng
khynhun
khynthup
shebuel
felix
rbwo
75snem
jingpynroi
382
1956
bengalee
michal
piyush
shlurbha
miles
miletos
muslims
392
trav
teaching
##chigre
ratan
kenbah
sikri
05h
thawaiñka
certification
chanki
authorities
433
jabes
##luber
techno
01dd
hashum
nongmluh
mcta
mahari
canara
kynsailang
518
ohdor
oholiab
dmf
mawsiangei
490
tahpan
peniel
penryngkew
balsam
overse
460
midnight
biskot
nongkhroh
faroo
pynehrngiew
jingpynibor
basaïaw
545
540
543
kene
berekhaïah
berekhaiah
īaki
massah
560
534
tabut
iasaidnia
jyllla
mts
figo
paradise
tubercul
pilkrim
mawlyn
mohor
mccleu
heles
jingiathong
jingpanpoh
padibah
slogan
volume
ashpen
ashkenas
dipan
asasel
meholah
iasnohlang
moolam
moowakhu
msl
mserc
gramsevak
gsws
pynsakhi
##bishni
snepkor
sylloklang
webster
marcel
marconi
##fficiency
talmon
winter
9485
jingiamap
gennesaret
wohdaw
negro
jingbyrthen
##jalong
whd
golflin
conferencing
gurjar
ahilud
jawdud
islamia
retai
kings
defense
premises
abib
##cachar
##pelah
pynїa
pamra
billi
wardkhar
shobab
ïashongkha
hosah
##ynieiñ
##eghalaya
mawtyllup
phadri
desig
rhembor
nongrangoi
sudesh
shammua
##north
naraya
bandh
holistic
dupat
ïuhkjat
ksehkoh
rohingya
umnget
##uselah
ïasaidnia
deton
gastric
pongshai
ayog
elekson
ibbah
everjoy
eliasaph
shelumiel
heipor
eveningstar
kibaha
kibala
nirman
nirbhar
jagdish
operating
adoniram
sacrific
jawahalal
##khihlang
baalah
lummawrie
haseroth
hasshub
nongsaiñhima
##bethon
within
mowluber
nongbamsap
hakkos
biolinda
sngewtieng
azara
kharsyiemiong
meitei
balloon
kwil
ñiuhlieh
annas
deiñchynrum
realm
reality
ifad
gloves
nyv
pelet
ïitkhmih
fourth
protocols
earnest
pink
pisidia
bakynsha
tyor
image
besai
besli
mgcc
rusit
rusom
1842
provincialise
refriger
physics
amasai
lisence
kidney
##ctures
jingiuhkjat
anak
hahshah
##labhai
kharmudai
ïatainia
jingpynsajia
bymseisoh
jediael
haggith
##kulia
akhbor
akhsah
akhsib
blandingstar
nierbah
joktan
backward
telecast
journalists
jingïabit
sewage
basngewsih
yesly
heavy
gosan
ophel
multiplication
documents
japhia
jingiapyniap
methuselah
marvelous
ndma
matthaios
friendship
telecommun
oholah
malkhishua
moopynieiñ
jingkyndeh
logo
sneg
nongpyntreikam
aloe
xxii
bapynim
secretay
phlangdiloiñ
##resented
karikhana
bhagwat
mynkrem
mynkre
alumuri
foreigner
cvs
cvd
shilllong
jacket
activist
landlord
thapbalieh
pirathon
jashub
drawing
switch
tetsuya
makhpelah
distrcit
sokoh
bhattar
dibaid
honorary
nutrients
primrose
jahasiel
evange
critical
tyllap
tyllan
temperature
gibbethon
vacant
tngaw
heavenly
representation
bhubaneshwar
wife
bhanusib
café
cafes
lenpdengshnong
cleaner
shelemaiah
shelemaïah
kalaichar
jingjemnud
reforms
aldrin
hoiod
nraoda
noping
jingpynmlien
delegate
musahary
pamphylia
axis
##lavya
##shainlang
bronze
jubap
renewal
khliehumwang
damalgre
vikram
pynllait
adoption
sumitra
##symper
pretty
jingjanai
dohkrut
emmaus
##otherapy
software
proceeding
midwifery
prosecutor
homestay
observer
twinkle
aristarkhos
seboiim
wonders
shuthelah
natalie
mukhaialong
basaiamoit
script
artemis
hoojon
encephalitis
recommendation
fertilizer
gehlot
hophni
pontos
trongpleng
suraksha
cirlce
rameses
segub
mustafa
authentication
ultimate
pentekost
clouded
craftsmen
jpmf
swayam
wankerlang
pramod
codify
lumbyrhing
kharhujon
amlympiang
religious
sustaiñable
alternative
kompolsori
peninnah
shalmaneser
circumcision
rashtrapati
jingeksamin
cuttack
baalath
lazarus
hahuapara
shudep
masood
mahalalel
sykomore
mandolin
sahksaw
stogent
laitsohphie
unrepresented
potassium
behavio
abishag
demetrios
shangkhawiah
mawrynkneng
hammedatha
cruelty
pynthorsale
tahpanhes
farooq
basaïawmoit
tuberculosis
ashpenas
telecommunication
1pm
3lak
4tylli
620
7trep
819
918
ata
ashan
ajar
alai
athaw
akher
adaïah
average
bing
bity
bittu
chun
cari
cgi
cdpo
cfo
dw
db
dian
dhara
eid
eas
elp
eve
efficiency
fis
fab
fero
gd
gon
gary
gpo
hg
hpu
isi
ikha
ibs
jb
jup
jip
jjing
kne
kcc
kran
kui
knie
ksiah
kwi
kymmaw
lih
lid
lwai
mym
mop
msu
mgr
nyngk
nya
oa
pb
pylla
pihuiñ
qatar
rukum
ruwai
ruit
sno
slong
sident
sder
slc
sistar
sdeo
srally
slinder
tyl
tone
tymb
tier
unem
ubym
vdc
vds
wis
wag
wywo
ys
yam
yiar
za
zion
zub
##egation
##lup
##lua
##ole
##uo
##uta
##uation
##ught
##usher
##sec
##yukta
##whati
##wriang
##chang
##hn
##hyn
##pg
##pien
##pos
##ption
##iod
##iohi
##imari
##tv
##tur
##tieng
##tend
##nr
##nongr
##nity
##got
##gop
##їot
##db
##rt
##rct
##mp
##myntang
##fai
##fida
##feller
##kwah
##kper
##krung
##jol
##jian
##bia
##bid
##100
##644
##03
##07
##2ngut
##811
##ïang
##quali
##ée
kac
kawah
kaiap
kaly
kaïap
kapur
kaushal
bama
babar
bangi
base
balan
baja
baikit
kien
kikot
laun
laur
lack
ïawai
ïasngew
ïalinda
haj
hadeng
hack
hakhmih
hakano
hakato
##hand
jingwang
jingkajia
jingngiah
jingñiah
badang
##arah
##aik
##ieñ
shm
shiap
shede
##orbe
##oning
nagp
nabin
napo
nayak
##lave
pynba
pynbah
pynpher
pynrangbah
##news
##anta
##anath
khv
##umya
ngu
##iada
shaik
shapdeng
dabi
nonglad
nongkhar
kati
katban
##uted
##bay
##balang
##unity
##isan
##ishan
##erie
##emia
##urah
longkam
mynthlu
##ynraw
khatam
khajana
iabah
iakhot
iade
iakhawai
##thok
##thol
##awanda
##khli
##rina
##riyo
##ewduh
kyndoh
##eity
shikmie
##lika
bahynriew
##uly
##yngrope
##timai
##esstar
##oming
##omous
aim
aikhublei
##kalp
##eption
iohtam
iohpor
thu
##shlur
##shrong
##shuran
##adi
##ott
##otia
##otrop
##ukwu
truk
##karang
##eto
##etry
##ettlement
patient
patrol
barry
baradbah
bros
breiw
philad
wanbok
wanpyn
wansalan
wansted
##nox
##nold
laheh
laher
##aling
##alaiah
happ
##sila
kyrdop
kyrdep
jalam
jashar
jakor
jazz
##ides
##trim
##trine
weilyngkut
kamei
jingiahap
jingiamai
jingiabuh
jingiakhalai
melam
byna
bynhei
##sts
##strat
##storm
sengbhlang
sengkhihlang
jingkhan
jingkyntang
jingklun
jingkdup
jingkyllaiñ
##rent
##oking
##aitjaiñ
ribha
ripp
rikynti
paidbha
paidpah
lehrain
leheiei
kitwriang
arbin
arora
arkynhun
lynguh
lyngam
lyngwi
##elek
##elphia
sashi
sagy
##wasa
rangïapom
##inta
shahkem
makha
mahala
marang
marthon
trailer
trained
prew
prone
neccc
mawram
mawnam
mawïong
##khad
##khait
pulsar
jingsalia
jingsorbe
20000
20hajar
2049
##yllien
##phieng
##ecti
phas
phasm
paresh
paduh
pasc
khunpong
jingian
sngewma
sngewmon
sngewsang
sngewlehrain
##naduh
phna
phret
phylliah
bhait
borato
borsara
colin
disput
khampoh
khamatam
shonglok
##sses
##ssment
myntrirangbah
pynbeij
##matha
kynthong
##oskar
jingpynthoh
nangkhlaiñ
nangphyllut
umr
umwah
umlat
umlah
jingmush
kynteit
synioh
bymstad
bymioh
manang
mansion
mancachar
pynking
pynkieng
pynkdiah
tipkur
pynpjah
comet
thawain
stering
secular
secure
##yndait
banp
banlumlang
banbuhai
skin
raimaw
kongong
kongthei
##estling
iingseng
iakiew
iakylliang
iakynting
isawanda
pynskuiñ
##eduled
sangti
sangleiñ
lumnongrim
iaidkjat
jura
imam
immi
immed
immor
riewshongshit
offer
oflyn
##ymme
##chem
contin
contest
shitroh
sohlai
sawan
sawkyr
sawsymper
bamdoh
bamsmai
jais
jingiakylliang
kharbamon
eastkhasi
ïingsaw
ïingkashari
kotok
tamti
choc
chuba
kloh
##odox
garampani
spc
spil
##shid
batiton
unlaw
satan
teli
##ppu
jingthikna
jingtyllep
sanj
sanchar
sanitary
sanfida
iapan
iapyllait
amt
amur
amin
amsar
ameth
amspa
amig
amount
wahmynt
wahpathaw
##sala
##saïa
nongker
pylleit
mator
bita
bigg
##akren
jingsngewshngaiñ
diengt
diengïap
emdor
jingkhr
jingkheit
jingkhmieh
10hajar
deen
dead
deku
deaf
dewan
jingshahthngan
injection
inshuran
kynruh
teibok
shembhalang
jingïuhkjat
ras
rane
ragh
rajeev
durim
adaiah
adokgre
##bika
##biraj
jaiñha
apbor
lamiki
joan
rob
kutnoh
##osper
##reg
##retion
duai
duli
duet
panop
pandora
jiedskhem
pynlyngk
geologist
bakan
nongphah
nongpyntngen
1265
bened
##lawiar
heth
301
pawang
jngtip
nymdon
##lys
ministr
jingbymshai
jingbympat
pangngiang
suv
suicide
provid
11tylli
komor
komit
suktia
pynrngat
pynrusla
waroh
warehous
thangraiñ
##lahier
nongbsa
kartik
answer
##dare
pynïash
singha
elhanan
saiñik
chairmen
basbun
##plie
##buin
thieddieng
khyrdong
risit
period
lymkumta
pynsngewtynnat
nongshli
supriyo
ïaphai
ïapyrkhat
namtam
resaiñ
resettlement
mosk
norms
dapbiang
##khiar
pohrmen
polym
hnam
khongmen
khongnoh
goer
goel
narang
alg
albin
16th
talawiar
tyre
tyres
tyrpa
tyrpar
jingiohsngew
jingiohlum
jingiohbat
lokyukta
rongk
ronghi
mangald
##agar
haryngkat
harkin
directors
dongktieh
agra
pritam
jingiapoi
tihmaw
pyniajngai
iasngap
jingkhangit
plas
close
saisaw
kpc
kore
ecl
ecological
##iwel
mula
muliang
pynthym
tikka
jarjar
mawsna
ïarington
sita
##hiarani
rank
cane
nongpynithuh
syrpud
trip
triple
trinity
diva
divers
raidieng
214
saradha
sev
sect
sebadaiah
beaiñki
221
otdieng
otters
##nail
aswa
arted
##ults
##gana
holei
tengkhat
maikhuli
pastieh
puran
purinam
stationery
279
278
273
kulbir
salute
salmara
salvation
tarpa
282
rympeit
263
26ngut
##cket
407
jingkhalai
mawrok
mawrus
mapl
gaïos
gasper
##veen
rims
keri
urn
acfo
310
317
iamrem
kron
krisha
kruin
pyrtakuna
bombay
vilas
badonkupar
diot
dimar
dibin
001
pyniohkam
quote
crores
crusher
palt
palm
release
musuem
jingkynoh
jingpheil
##iness
aareng
jingaiñguh
##atorium
##orama
455
accel
binong
hunlang
hunter
meiieid
faf
niewpoh
gino
324
sadhiarani
pyngnat
menu
meritor
atma
attention
atmanirbhar
series
khapud
khapkap
khapnap
jingïashoh
sof
sohar
awhoi
jeeng
pomlahier
kontractor
beiῆ
70ngut
iaroi
iarkhie
interpret
homeguard
yojna
guwhati
bishon
byep
sinam
sindh
seiñpuh
##alid
swk
sweden
psalm
##milimetre
darihun
##chak
jingpynsleh
jingpynsmai
##khamt
better
elea
369
ncw
ncm
345
755
amitesh
385
sird
phlasting
bussiness
thadrong
cmcl
415
41ngut
##jingkyrmen
chamcham
##self
jingsahnud
statistic
shyiengkrung
01gc
protected
kajingjia
jobcard
471
dailad
daistong
##estian
incidental
hades
517
hormon
##ssay
dmik
customary
##sterwell
iather
bhor
465
reports
mako
icon
keep
##sheed
##2028
jingkyntiap
dolloiship
565
symp
tabla
litera
##shetja
ivor
twenty
bajngum
mawlynrei
cheran
mmo
mm20
indig
held
helon
##active
evs
everson
lartang
larmor
jingithuhpaw
623
gramin
jynthung
organizer
talen
948
thongnibah
890
##niture
jingiamynsaw
genral
churches
740
goodlead
jingiakynthoh
##esterol
##lendar
bikers
addll
ahidul
mecf
jawsheh
markets
eklavya
defend
lalit
610
793
wilung
##peor
mspwdo
pammanik
reserves
graph
mawphru
wards
##104
luta
pyngker
awas
awaas
known
maths
mawmyrsiang
belie
belgium
umtyra
lymbiang
pynkmenlang
mawdiangsnam
arunkumar
vallabh
vallabhai
##dated
tablets
basawiamoit
books
nbfc
sudip
ejhdfa
rajaju
jainpien
##kgipa
shanmuga
mookbu
bishnapur
mytn
devil
provincia
arabic
maxx
umtru
fridays
jingniewkor
##75204
kyrniom
brolington
jingiarai
slew
nfr
jalia
admn
admission
admishon
snohktilang
issac
yours
їakynduh
equip
jingbymburom
khleih
applications
hakhliehduh
kynphad
sacym
cpwd
ganold
pynlehrain
discretion
brahmin
moksha
ikop
magazines
їapthngan
jingsuhsat
##8080
ñiuhmat
##691
still
##ikaïa
bathoin
hectares
nongwadbniah
pensions
pharmac
loniak
pillang
rusa
verifia
lastborn
##lized
bullet
umslap
anantapur
sweeper
akhtar
dtfc
medicinal
iccw
jefferson
943611
russel
##tivity
mawmarin
khlainbor
pynkyrduh
mawlyngad
vaccination
aviation
cicilia
scanner
nongïasiat
catch
##rpwu
shekel
text
laodikaïa
distirct
sebadaïah
psychotrop
nimrod
daphiralin
cttc
їambynniaw
##chanda
lahaleiñ
mawkadiang
pynbijai
pynïasyriem
jaitbyntiew
begin
potwar
pyndukha
opposition
arborhima
pyndenum
pyndensohsaw
instagram
kvic
adventure
pirates
bhartiya
assured
textile
became
jakhom
banshanlang
sanatomba
procedures
fernand
jingbynñiaw
liarbang
dreamland
ammrpwu
khongkrom
evangelist
tunnel
yumnam
yummy
agaiñst
complaints
##352iewduh
sticker
ropmay
neurogen
jingpynitynnad
jingïadonlang
problem
consultation
consultative
products
sponsored
furniture
gladdy
volley
grossper
quallapatty
##432igp
jingmaitphang
participation
dynamite
cadre
nuska
wywc
subhash
enrollment
syllaikariah
klining
naorem
emotional
jingkhohnioh
moolber
disturb
##wondo
##rishnan
##538igp
jingrejister
shalyngka
mawdng
umtangi
dapoiwanmi
acharya
samajwadi
pharmaceuticals
effect
gaios
glcds
nwyf
massage
mawnarian
cholesterol
investigating
castes
dymmiew
varanasi
medanta
mankachar
gelatin
enrico
khadhynriew
gregorian
folk
iqbal
wifi
thaiñnongkyndong
suzuki
harpish
procurement
cmpdi
caroline
explosive
assignment
apocalyptic
rueben
versus
bariewblei
phrikshon
unskilled
mathius
intake
exercise
wadajied
forever
repairing
performing
enrolment
doffley
iamareh
pasweth
dikshoneri
rejuvenation
crematorium
drinking
framework
rhongkum
baishya
mawrashe
thaiñpynursla
amiangshu
initiative
hyññiew
tikrikila
asymptomatic
according
ronningson
golflinks
ksehkohlong
refrigerator
athawale
caritas
unemplo
kaiaphas
kaïaphas
shaikdar
##strator
ripple
phasmoon
khunpongka
jingmushlia
sohlaitrim
unlawful
amethyst
amigos
wahmyntait
mangaldai
meritorious
khapkapun
larmorti
##7520449
verifiable
psychotropic
020
1mm
1km
4mer
8mer
9lad
919
950
ashah
ashar
ack
amate
bia
biew
bsi
bsiat
cen
cms
click
dyngkong
dpc
dhem
dbs
epher
edan
ero
esc
epc
ester
element
ebil
etern
equi
fss
fcc
fancy
goi
gale
hba
hob
hsu
ie
ice
iiph
ibang
ible
jg
jlam
jol
jiar
jnang
jada
jrup
jtta
jreiñ
kma
kwa
krong
kriang
kend
kbum
ln
lpa
lubri
mhi
mura
mouth
mrong
mith
nuh
nsa
nard
nnc
okh
oce
osem
orange
pie
pes
plei
pmu
puth
psu
riem
riaw
rwieng
rms
rgi
rede
skh
slp
sran
stic
sias
tc
tia
tot
tna
tiaw
tution
toin
tyllang
tyllaw
tyndur
tdca
uz
ulam
unt
uch
ukj
valid
ws
wd
wam
wast
wly
wensi
writing
wcu
wuhan
ye
yedi
zi
##ebar
##eart
##etic
##ebaïah
##aan
##lr
##lit
##los
##lyndit
##oom
##olate
##uir
##usiar
##syr
##synniang
##yer
##yland
##yurappa
##wor
##whi
##weh
##will
##cie
##cop
##cue
##hup
##hed
##pin
##palok
##pull
##iu
##tm
##tus
##thih
##nyf
##gin
##desh
##dama
##dukan
##dubi
##dwm
##rha
##rul
##rus
##ration
##ries
##rome
##zila
##mam
##muk
##mos
##mers
##miaw
##fr
##fm
##fing
##fast
##kst
##khim
##kdong
##kynnoh
##kgre
##jng
##xes
kae
kaha
kasi
kabor
kawer
kaseng
kassar
##ngeng
baï
bacc
bakham
baïong
kib
kieh
kiwan
kilak
kidaw
kirl
laai
lajied
lacha
lakham
##onggre
##ynie
##ynhun
##ynold
##eiban
ïait
hakh
hail
haden
habahun
##ingtone
jingwah
jingsian
jinglilam
bado
##arp
##ohkha
shesh
shwar
##orrha
##ons
nab
nasam
##lama
##laomer
pynih
pyntei
pynhikai
pynkap
##atan
##ahs
##ahsur
khes
khoi
khiem
khma
khedor
##umers
##iali
shakh
shashi
shaaph
shamir
shakmat
##itos
##enath
##amental
nongriang
nongaidaw
nongalbibra
katrai
##hiv
##hiopia
donka
##yrna
##eheart
##utory
##bakh
##baoth
##bassar
##bapynshngaiñ
##uncy
##isem
##eros
##uram
longkha
longtrei
mynth
mynwei
mynshai
mynni
mynriang
mynisem
##ynruh
khalah
khajur
iabat
iashet
##thu
##thra
##awet
##khiel
##rice
kynian
##shaka
##shall
ngak
shita
shidur
shiva
##lio
baher
##ulvi
##tios
##omani
##ompong
aiῆ
aiei
##kaluh
##epa
##eputy
iohsei
hirah
thous
thunder
thou
thyngngian
thngiat
##sho
##shrip
##shniuh
##adad
sorki
##otech
tru
treng
##kara
shnng
sorkarjylla
##etahs
patil
patgoan
patmos
barcel
barrack
barthol
brand
breast
phinail
wantrei
wandar
wanshwa
wantuid
##daya
nohron
##alei
haph
haphida
kyrben
jane
jaban
jaas
jagan
jaland
japang
##ider
##tril
weibriew
kamni
kameghalaya
jingiale
jingiabakla
jingiashad
jingiabhah
mex
meun
medalin
melekh
pyrnah
pyrthad
jingkham
jingktieh
rima
##kamon
lehsting
lehmeng
jingpjah
jingphikir
##aphan
##apani
##bora
arne
arah
arlak
arbad
arphong
ararat
arnold
tangdep
##rab
##rane
##rabi
##elbert
saurav
sallu
saumya
ranger
rangiapom
rangjyr
shahteh
mahad
marah
marad
marbok
margar
marshiang
trainer
haduht
pry
pron
prome
prose
nether
mawshong
mawja
mawsoh
mawlait
##khadc
##khasia
shimri
shimshai
jingsang
jingsngem
jingsyriem
jingsnohkti
##ylleng
##yllop
##phu
##phuh
snem19
phali
sambor
khlep
khliak
pase
khunkha
jingibieit
sngewkhraw
phler
bhand
bhaskar
boris
coe
cook
colour
syiang
dish
dishan
distt
khamstad
shongpyrkhat
pynlongkam
distric
##ilp
districtcouncil
##oskhana
##olai
jingbynta
jingbynnud
shual
jingpynї
jingpynwai
jingpynjur
nangli
nangleiñ
nangkhraw
nangïaid
umstem
umwi
umkaliar
umrynjah
watt
dorkas
##ici
##icus
##icate
##irk
jingjyrngam
jingjynthut
buhtep
manners
pynkem
pynkwah
##uses
##usnam
kanol
langdong
##ladah
sahiaw
##pakon
pynpo
pynpah
pynpyut
combat
tharo
stok
stps
thaiñupper
thaiñnorth
##bhabriew
banda
banpynskhem
skaw
skkst
shillong4
togar
##haran
raimon
kongri
asset
##esting
iakwah
iakdup
surjew
surishaddai
##toon
pynsoh
pynshi
pynsieb
poibiang
##educ
sangoh
comment
lumkur
lumdorbar
kswo
impor
imsah
imnah
imslem
riewpoh
riewsan
riewïaleh
##ives
##ivid
indore
ehjahar
ryngkuh
consc
tynghah
laitphet
##phil
sawkuna
##ongress
##thanam
ïohjam
bamynta
bamoth
##bers
##berg
jaish
surokmiet
koffi
kharngi
kharchand
1920
1918
1913
##wana
##wani
pynkhleh
pynkhyllew
khyndait
tamdor
pdok
chronic
chynrem
##kine
klai
klum
##odh
##odes
##odian
snig
lailong
jialong
tebr
jingthar
jingtymmen
metta
meters
dohmet
sanjoy
sanhed
hynnriew
shipar
iapli
ami
amul
amjong
amkoi
amicus
wahlyngdoh
##neries
nongkong
thohlyndit
##lain
matsoh
matcha
bibi
bines
bijai
bijay
binea
pynjyllop
dukam
poss
##mana
##mannah
##akata
reu
diengsiar
emrs
jingkhyll
jingkhroh
1050
1077
deuel
devin
dewїong
jingshahteh
insu
nongrom
nongriam
##band
##banse
raha
raut
rabit
rabin
rafa
raїot
during
##sebub
adhi
adram
adult
ktiar
jaiñba
jaiñiong
apo
apol
lamjingshai
jingkyrpang
jolly
unesco
roa
row
##esheth
##esheet
nongthohdieng
nongsei
panda
panbor
nongshongiew
pynlieh
gear
iaim
iaioh
iaieng
ply
ploiñ
plenty
##abut
nongpdem
nongpathar
1248
bey
bekher
##rambhai
##himoth
kmiesan
##ersen
mothers
moulvi
moladah
jammal
baible
hegai
konst
309
jngpyn
khrawtam
jingbymkheiñ
jingbymbanse
former
formula
suar
suwari
sukhlaiñ
11th
kombir
blister
suklang
pynthiang
##ished
pynryntih
jingrhem
##khemish
##nongbah
##nongshong
lebit
##asaid
rithang
riticia
karkhemish
##lpur
anwar
##dara
lator
chaiñ
##dance
elt
saiñbor
repent
##bujli
rispah
byrng
byrsha
byrsaw
##ksang
monu
monarch
18snem
jingiathang
jongkane
pergam
13tylli
hynñiewmer
kolestar
constituen
nongshem
ïapait
iatih
names
saitkti
saitjian
reson
respect
rescue
dapmaiñ
##jongka
##jongki
abdo
abidan
pohleng
turk
##dooh
##row
golan
gowda
narum
naren
orien
ithuhpaw
254
25lak
boun
bohan
boyc
tyrsaw
jingiohpang
delux
ronglieh
rongsak
mangtyngka
mijamin
miyawa
harsha
corres
kheiñpoh
edu
pynduhjait
agm
agia
agal
noun
nover
petha
petrick
prima
jingiapra
tihdewiong
nakaba
symblai
plak
planet
subodh
saiborne
balachanda
unions
malkhiel
purakhasia
pynthylli
mawsawa
mawsngap
50snem
ïaroi
nongpynia
shohdab
syrdoh
pedaïah
lawr
lawb
lawri
lawkhla
sakhilang
phyllad
211
smyrna
sarethan
passes
228
2222
briwar
##naim
asaiah
assir
asgad
artist
numbor
howell
jemdaw
##ffar
maibon
mairom
ïakop
puramit
dobar
doves
274
27ngut
kulsi
salt
salz
salma
salek
tarirk
bablu
289
281
287
28th
##lyngki
##starly
kharko
rajbong
simsong
rymbhop
##sueros
josis
40hajar
40kg
nongtyrwa
##kmenlang
herbert
myntlang
mawrathud
gaon
gaash
gayle
kerry
nongdielang
uriel
urmila
acps
ñiewsang
314
316
nizam
shethar
gnrc
krom
ringrang
allen
allot
hatta
clubs
##tenance
badonbok
pynkhlaiñbor
##diengngan
##ogya
diary
dilash
johnste
johnpaul
002
sabat
sabud
hamul
hamlen
hamsaïa
##bekai
jhor
palden
kharshiiing
welding
musulman
neitho
khanna
admins
paisa
60ngut
iadonbynta
##merodakh
servic
jingbuhteng
halls
##medabad
akka
456
access
chiliang
chick
chinese
lynsher
meiduh
udeputy
kmong
iongkaluh
shullet
jony
321
merab
atoskhana
jiro
serug
magic
magistr
chari
chatrath
jingïaumsnam
ishbah
sour
solicitor
ahoh
ahmedabad
jingbunpaid
damra
jeshaiah
jeshaïah
pombriew
bethpeor
##binson
moran
ryngngi
ryngngaiñ
shanti
iarkhiar
jinpyn
punjee
risaiñna
interim
charity
charter
guj
374
radhak
pynkhihjar
appaim
approved
willy
seiñjam
##eke
doctorate
utter
uttra
hotsp
ahasueros
iatainai
upto
erpakon
headingson
##jhieh
338
337
talaq
rape
raplang
rapmai
rapleng
shonshab
betwe
campa
368
367
sectional
kanao
422
tanker
ncr
ncert
jingїam
jingїalong
feb
consumers
381
444
447
mawryngkeng
tonnes
jinghylla
jinghusiar
1953
rbywo
majik
majistrate
pig
pib
addition
starfing
paswan
##llington
pumps
thadraishan
itm
ithiopia
olives
396
kilomiter
thapb
485
481
488
kenis
lakhs
dhor
419
thyllieid
05g
05j
sherpa
shereb
sherebaïah
jingïohnong
chanbor
nh6
jingpynmihpat
roma
romero
dudhn
kyndiap
jingsahnarphna
static
nethanaiah
nethanaïah
techni
sultan
nesa
kandon
finalist
mci
mcceu
##kynto
##kynjah
475
476
kynsaibor
sildubi
nakine
hslc
seled
lights
daia
iawbor
iawpaw
inclusion
hadhu
511
horen
ajta
525
mamit
498
cecilia
tahsil
weap
bhud
bashrah
##ronics
ddma
dikshit
icfai
icici
tina
papers
1966
berlin
##iasaph
jingkynting
niangthohlieh
cells
561
566
baalsebub
pynapshrip
fixed
umsohjew
gerisim
ivory
recre
bajew
tourists
579
571
8500
dennyson
mohes
fundamental
kyntonmassar
##ïasiat
dateiban
padma
sylver
ashhur
electri
larnai
larisha
phuhmut
asaïah
kedemoth
jyndem
simons
kohkarang
jynthaw
590
pnat
suidïap
##stand
corpus
marcos
marcony
checkpoint
ferro
jesabel
jeshimoth
torch
wind
##kota
mithai
mitmit
pollstar
maiñtenance
ksanboklang
festivals
manikganj
phudkroh
gurd
iatreikam
juniors
draison
ahira
ahiman
631
wrestling
defec
defection
alexand
lalrin
jingpynkupburom
883
nahum
nahlin
fishing
jatiya
tvs
byelaw
gideoni
nergal
nerdwm
##byrngia
nazir
jingsngapjar
banioh
bilhan
billian
warden
##108
shobakh
celsius
mathias
martl
rocket
tynshop
tyndale
users
##moy
handle
championships
famers
batskhemlang
philipi
hons
oded
nanpalok
abhijeet
nokot
shirley
##140
jingpynjngai
mayborn
holder
device
debnath
hushim
aiborsing
##gcl
tathagatha
sibsing
sibbekai
julias
counselor
maxim
maxwell
nrda
artaxer
gases
jingrisaiñnoh
ibsan
conventional
##estarwell
irish
jinglynngoh
chef
cheetahs
langkawet
calvin
mnf
##402
upazila
lasdang
jagad
headquater
operator
hearts
##ify
northeastern
veronica
##odaya
##odaben
##277
abdullah
hananel
eliada
raitsamthiah
mishma
saiantist
electronics
nadia
dinner
keirang
bakhlemraiñ
jingjubor
lumpyngad
##rapha
brought
henadad
nyda
nyngshap
shyrti
makasin
rabbi
pinak
jingthalaiñ
bakynja
dswo
fancon
iasahlang
biden
##pathy
kidkhot
kharmyndai
alfon
likai
aramaik
quinton
chambers
berniki
egjakor
ananth
facility
kampohiing
mentor
qualy
bukki
baladan
nongïapom
ranaut
94363
jokshan
balarishisha
##esticides
iakynad
littlestar
clinical
jingshondur
thumur
arabah
saralin
shephi
kharbangla
cashier
prongtuh
umtlih
connect
boyce
03638
humphrey
multiple
lodebar
їatreilang
hanamel
jingbuhai
nongïalap
thereof
##ulaye
prahlad
concern
concrete
conclave
coterie
guni
jingpawnam
pynsuhsat
mattit
genetic
geneva
##oxide
routem
lawyer
kmaishnong
dehra
bakyrhai
moopala
geshem
nongbanbor
mawsawrit
horonaim
davisg
ferdinald
orag
bapynjot
bankerlang
##roditos
laidong
shkenpyrsit
bhagaiah
kadliengsuiñ
##ertary
alumin
alumni
nekoda
oregon
rhodes
##polo
pedaiah
pedahsur
##zzlys
birendra
jashodaben
jayanta
argob
umtyngngar
demonstrator
character
fernando
mefsu
cubic
jungai
lusias
mazumdar
ammishaddai
jehosabad
prayer
critic
utility
amirphor
retailers
details
ilfs
paramer
almanac
whatapps
elisaphan
abishua
digvijay
upadhyay
upadhyaya
further
grizzlys
glenn
lengsuin
ralte
riewshitniam
giddel
presentation
orthodox
aleksandria
nrao
kommittee
delegates
nepheg
vhp
departmental
nongiakura
congresss
chengkam
reallystar
enrogel
wrbdc
manufacturing
akira
ileksion
lessly
srcw
harassment
riewialeh
riewiakhun
muhammad
9856040
perfectpull
funeral
jiva
rerapara
##gittim
##model
pynisap
jingburia
jayalalithaa
leonardo
swadesh
##chatar
##graduate
laxmi
ronaldo
recognis
epaphroditos
wonderful
alemeth
nynkong
khukri
pagiel
borkus
##imawleiñ
kharshïing
jingïaphylliew
update
cunville
classical
gumaghat
niandro
##rephes
kareah
arodonga
rangslang
neelam
shimeath
iewdielang
taekwondo
mylliemumlong
purkayastha
allowed
equivalence
sayeedullah
jlawnguid
mungor
sioner
porsohsat
comissioner
question
chargesheet
diagnostic
brigady
ujjwala
ajhswo
hathakh
shngimawleiñ
khosla
drishti
garohills
heliopolis
restrictions
overseas
retailer
billiards
kibahaing
lidohkha
snooker
kalyani
bajaj
laurence
shedeur
napole
philadelphia
20493
pascal
sngewsangsot
bhaitbari
jaiswal
eastkhasihills
joannes
pynlyngki
komorrah
rongkusi
diversity
mawrusyiar
krishak
diotrephes
aarengh
byepass
dmikstar
literashor
ivoryna
mmoea
goodleaderson
discretionary
ashahel
amateur
dhemaji
edanad
ebilmerodakh
eternity
ibleam
kriangrin
nuhep
okhran
redeem
siasia
yediyurappa
kirloskar
lachaumiere
sheshbassar
khedorlaomer
nongaidawai
thousand
barcelona
bartholomai
jalandhar
rangjyrteh
netherland
paseah
togarmah
surjewala
kharchandy
sanhedrin
matsohlah
rafael
abdoulaye
boycott
miyawaki
noverfield
mawsngapwir
salekah
rajbongshi
johnstelin
between
sherebaiah
dudhnoi
perfectpullquote
2snem
3a
3klur
4lak
5tylli
6hajar
7snem
811
916
aat
ahang
ashim
aji
aven
asim
astra
bum
bli
ble
bic
bshi
bds
bku
cn
chim
chaw
cbm
cities
cpu
cyc
cwe
dah
dyng
dent
dob
dlas
deter
eat
eep
est
etha
eban
ebi
efc
essay
fes
fas
fell
fuel
fani
fbcc
gb
gel
glut
glaman
h1
hduh
hud
hept
ip
ioi
ict
iver
ide
ibad
igal
jyng
jom
jymb
jsy
k1
kkha
kdoh
kwada
kushi
lng
luit
lusi
lohi
lcs
mq
mylla
mund
mittee
nla
nuid
nywo
n95
otril
pti
pik
piwel
rf
reit
rsp
rngaiñ
rting
roch
rngop
stip
srim
sro
send
tiang
tion
tol
tist
tsa
thih
thim
tish
tden
tluh
uv
una
ujong
vel
ved
viet
vwsc
wu
wz
wk
xiv
xvi
yar
yun
yung
yester
yeshi
ysr
zinda
ñier
īangi
##eta
##eda
##eech
##euncy
##owa
##oft
##uce
##ulin
##set
##sman
##sdent
##swamy
##yong
##yah
##yiang
##yata
##yiuh
##wut
##wthuh
##cular
##hk
##hot
##hmu
##hyndai
##pla
##pieng
##iia
##iologist
##ilated
##tz
##tum
##tiew
##tom
##tait
##thar
##tnga
##ture
##toir
##tyngkut
##n1
##naw
##nial
##nral
##gf
##gun
##gaiñ
##gni
##dt
##dah
##dis
##dus
##dist
##rée
##zire
##mynr
##math
##mbat
##fcc
##frey
##fair
##kl
##kd
##kr
##kna
##kesh
##kynsaw
##kulmar
##kbh
##khaiñ
##vic
##verson
##jy
##jih
##jak
##jone
##jith
##jcl
##bylla
##blah
##bies
##brig
##09
##200
##ïid
kaka
kakam
kaph
kaya
kajor
kani
kajuk
kalaiñ
kakong
kalendar
##ngot
balong
bass
batrei
baiam
balu
balyan
kior
kikam
kiss
kibr
latei
lalaw
##ynїap
##eigl
ïapl
ïarong
ïakhublei
haor
hakum
hamu
hakjat
jingaid
jingik
jingumsnam
jingngop
##aro
##arem
##ared
##arian
##aieid
##angal
##ieu
##iep
##iety
##iekal
shum
shynt
shob
shro
shngai
shsim
shree
##ories
##uhbuit
jongpha
nau
nabh
nafe
nakatei
##laem
##lage
##lamare
pyning
pynpa
pynrah
pynkhat
pynthaw
pynkamai
##aty
##atah
##neet
##tapoh
##tagn
##anaiah
##anaïah
##ananda
##anakan
khera
ngen
##iakai
shatr
shatrai
shakatei
shadow
dao
dadien
dale
daber
##enai
##enjar
##ylinda
nongla
nongait
nonghat
nongmin
nongjubab
##high
##yrï
##uters
##utshuh
##bastar
##uno
##engana
##erut
##erba
##eral
##erian
##erated
##erford
##emption
##ured
##urance
longbynriew
longspah
myna
mynti
mynly
mynnar
myndai
##ynrut
##ynriang
##ynrieh
khasai
iale
iakai
iashon
iabhah
iakhaïi
iashrut
##thom
##thylliang
##thias
##khul
##khniang
##khyllew
##khusnam
ruhi
##shaph
shikhun
shikurim
shijam
shijait
shijaka
##lil
##lida
##lift
bahynñiew
##ulus
##yngka
##tiful
##esth
aibam
##kaei
##kashang
iohba
tho
thynram
thynrei
##shrah
##shynrang
##adh
##adhya
##ukar
##ukhi
try
trie
truh
tres
##karah
pato
patia
patro
patients
barc
bre
braw
brow
want
wanbah
wanwar
wanbuh
wanboklang
lahr
##aloi
##sik
##sider
jagi
jaynie
##ids
##iding
##idon
##idur
##trin
jingiaph
jingiawan
jingiabiang
meba
medi
mehalaya
meerut
##sthi
##stop
##stos
sengnam
sengrak
sengkhasi
jingklet
jingkongsan
ric
rita
riborlang
riphin
lehjubor
##enter
kitdor
jingpu
##aphi
##aper
arya
arphang
arman
arwat
aratien
ards
artic
arwot
tanglang
tangliang
lyngngeh
lyngkhung
##rakhe
##els
##elec
##elial
##udius
sajay
saudi
halorka
##inity
shahskhor
masc
marda
marshang
marco
marsharing
##upal
trailar
nebai
nethra
mawri
mawriang
mawdum
mawniuh
mawkarah
##khal
##khas
##khah
##ikos
##ynnian
jingsyllang
jingsyllen
jingsnew
208
20lak
##yllur
##echan
phalyngki
samatan
pari
parai
parle
pariah
pareek
parcel
khlie
khluid
khlek
pajuh
pasir
junel
##ndro
sngewba
sngewtrai
sngewkthang
sngewieid
##lene
kineki
phyl
phry
phoin
bhara
borban
##yngkai
khamjur
khambiang
shonglieng
liangjong
mihsnam
mihsil
##mates
##matic
##matics
kiteiki
##oson
##osstarwell
shusieh
nangbha
nangrit
nangjot
nangtai
laden
ladmaw
ladder
umta
umsa
umkhuid
umdap
umleng
waters
jingmoramot
doreen
kynter
megawat
bymiap
bymju
bymïap
##irect
presb
presbit
buhkhoh
mandap
pynktik
##ussion
treikan
##pac
##palat
pynper
pynpluh
compl
##mendra
stp
thaiñmaw
thaiñjong
bantip
banroy
sker
skjcl
jingthlia
aiñu
aiñam
aiñmeghalaya
asso
##estation
##nohsngi
iinglieh
iingshetja
iakura
iakynnoh
iakino
suroh
##hunik
pynsabut
lyngbaka
sangwan
commtt
lumbat
lumpyn
lumrom
lumshken
mlas
khrud
iaidbeit
##isabha
riewkhwan
riewїa
##kumno
indra
index
individ
indirect
##ymmutshuh
ehrngiew
##cho
mynska
conver
contonment
content
lyntijingkyrmen
tyngkhat
tyngnger
tyngshainlang
laitmynsaw
sohphlang
sohbyr
sohriew
sohphie
##phius
##phins
sawraid
##ongreiñ
##imon
ïohrah
##bery
councellor
jingdkhoh
1915
ïingjah
##wanda
pynkhoh
##yntu
pdm
chu
ching
chor
lape
laphah
garnet
garris
spung
speech
wester
batemon
jingtiplem
unwan
unquote
satur
sattar
jingtyn
jingteiñam
metrik
metbneng
nongthew
nongthung
dohïap
dohsyiar
sandeep
sanskar
lembar
shipowa
iapyr
iapyrta
amster
amtapoh
wahl
wahshnong
wahkhri
##nerator
kuratia
parakher
##sab
##laim
matta
binod
khangnoh
khangkdong
##radhan
polan
##brei
##akir
reorgan
jingsngewiapher
diengan
diengsning
diengkseh
emmanuel
jinglehdonbor
jingkhluid
10a
10b
10klur
1068
deba
degre
delaïah
denestar
init
instruction
nongrud
nongrathaw
iewmaw
iewtung
iewmusiang
rajp
rafi
rasheed
khliehrang
ador
adhunik
ktahkti
joiada
rostar
kutsnem
kdur
kdiar
##ream
##reda
##reach
##snieh
dust
panorama
madankynsaw
diet
bakohnguh
bakbuk
kyllung
nongpyllong
##ctory
##oneti
12mer
bek
beet
behari
##himos
##kharang
305
30th
30baje
30nohsngi
##lansar
jingshynshar
jngia
jngjia
jngmut
jngialang
jngiakhih
##kithmu
temp
##lyour
##jayan
minsing
jingaibuit
##lostar
jingbymsngew
jingbymsuk
khyndewso
formal
formed
sugar
suzan
##arding
15sngi
koma
mpdcl
pynteh
wari
thangkiew
banga
buy
leober
leyland
sniewdur
##hans
##hanr
2028
##cca
anno
anjan
anisha
ankita
aneigl
##darity
##ialson
##dana
lakren
basistha
jeruslaem
repot
repeal
constity
constiteuncy
##buaid
##niai
##nijira
##arakhe
jingpyrthuh
##obat
risha
byrki
semc
mont
monsur
montagn
seism
myllien
kolmen
execut
ramnath
ramases
supari
ïapha
ïapyllait
iathaiñ
namphrang
theory
abm
pohdor
pohchen
polyc
hnpm
maneka
##ross
khongkhlad
khongtyngkut
gohain
demdem
alc
alom
taj
ors
oral
orient
##arello
259
25th
jingkylliang
jingiohkam
jingiohpateng
scree
deled
delaiah
delete
walnang
rongsaw
rongkhon
mangsang
mangkashang
mix
mills
migration
harisabha
cores
eded
kompnei
pynduhlad
pynduhnoh
agencies
##rats
##rates
nogn
nogor
jingiapyrta
worm
words
24th
tehlok
places
subba
subraman
subrata
##licit
##lical
##licate
##bokgre
ecology
thomsing
muli
malieh
maliekal
##kjam
mawsyr
509
siren
kailash
ranei
randeep
ransom
caff
cafe
calig
nongpynshit
syrdeng
pegu
lawlyngdoh
rupanghaba
21st
smum
mawkma
soirée
saran
saraw
sarna
sekon
beaiñia
beaiñbad
briw
saitjaiñka
asf
ampata
skhemborlang
kyc
kyteng
pyndapborlang
##terjee
23ngut
khyllied
elections
enjoy
##ffin
ïakylliang
ïakatei
pynrungkam
purity
pursu
purely
##dilang
##dius
ïaibteng
271
27th
khadlai
prokam
ryniaw
junita
summer
kyntiat
syndur
syndrome
rajat
rajapara
simpah
dann
rymphai
josbina
408
40lak
socialist
##andhra
mlhep
lyngktop
299
294
jingpynkyndit
gayang
rimialson
urdu
pynmyn
pynmynta
315
311
318
phershan
revd
revival
nioh
niren
gnanakan
krne
traning
timsih
pynlutkai
newy
pynkhlaiñshuh
setlang
setmon
setting
##ograp
dibishon
johnf
004
007
hansar
hanuman
hamid
##beu
jhc
jhds
pynhiardor
sharmila
neiip
neifcc
supermodel
sapa
##drc
songna
jingkynoi
35kg
lovely
pathark
sunapyrdi
prabhu
paikhana
605
603
shikynhun
##charya
aksident
permits
jaca
jackson
affor
affilated
jinglaitlan
pynshongkurim
454
453
##lington
##ughan
chira
csb
binan
meikha
meiieit
meiramew
iongkhuli
shulet
328
sadho
jingpynsheptieng
pyngngeit
attra
atten
serious
chau
chaphrang
chanel
jingïashong
jingïashim
jingïajied
jingïasngewthuh
##pca
jingïapynbeit
sover
mbl
siangra
outside
outreach
bethes
beij
morsi
ryngud
airmar
##bourhood
sonarious
villages
huam
huin
bisheshwar
applic
boldam
rudy
##ekiel
##alization
swsr
stalin
darisha
##chakgipa
336
jingpynsep
jingpynsnoh
tiduh
mahendro
361
366
362
##risk
424
421
lenus
leningstar
institutes
##pyniaid
##haddon
##ticon
feature
feeling
transporter
342
347
myrshiang
tension
384
3800
441
440
pynstang
rbyc
jingiadonkti
builders
starling
##rakona
lime
certi
certaiñ
milton
watershed
itself
393
tractor
chcs
cmo
484
483
iashongsuk
lakhompong
anthrop
411
412
417
05l
05tarik
golgot
ïamap
legend
010
nesids
kanja
kansing
meprf
mepgcl
kajingiat
dengue
##kynthup
cannot
sillian
silkigre
corporations
seldd
bird
birew
iawram
increment
horn
inspectors
ajenda
ohshrong
##khoinijira
informed
527
mame
##alaïah
##alachari
495
493
66ngut
overtime
welley
iathong
iathew
bhus
467
shalynnai
located
sniawbhlang
555
554
mawblang
mawbyrkhong
541
547
kened
papeng
daiñthlen
seats
nianglang
531
gamelial
fighter
topic
umsohïong
tuberlin
colusa
recurve
reception
bajynjar
572
573
57kg
851
denmark
##ysis
srkbh
datbaki
padmash
jingdengksiar
larun
burman
meherba
mirpl
renu
moojem
phanuel
msg
mska
gsdp
xiii
597
686
675
jingdukha
messaia
tiewly
844
##amane
iitkhmih
ferdy
jeser
links
940
9402
jingïasnoh
895
wohdong
rolls
align
transformation
##mohon
challans
743
maiñroad
ksanbor
jingnohsynniang
776
jingpyntud
rcw
reduction
phudwah
dominik
633
hawker
telengana
impul
improved
lumdiengsoh
tyrpal
lipon
ameringtone
grief
##byriew
832
02tarik
aided
personality
lushai
awake
awasthi
nongsengkam
kyrdemkhla
truckers
matheus
gods
rockfeller
mawteh
mawtharia
handloom
pajwa
philiport
basawbthuh
honda
nbt
rutherford
dalseng
shamgar
shambhu
jainsem
pylong
mlpu
shiromani
duplicate
commanding
devrambhai
khatsawphra
mh370
wollington
133ngut
khilion
kunal
maxwel
iapoikha
lgbt
neigrh
machines
machineries
jinglyngshop
##quired
jingringdur
slodian
nfdb
croatia
jitender
pranshon
shaiñkuna
calories
##405
##392
gorkhas
edenbari
mayralbon
chowk
youngstar
##270
ganol
ganshyam
offences
kharbteng
syngngeit
habymmutshuh
##ledgement
selfie
bobde
businessman
endeav
pratlynti
##paitbah
nadh
brahman
keith
hakawei
1266
1267
mokoilum
aziz
##oldfield
amarawati
twolane
circulation
khonjoy
alabastar
tariq
shyrkon
tableland
jews
pinku
luckier
nonghul
ioaaa
shympriahkti
napkin
natbor
pillingkata
herculus
nissan
ibakordor
ibajanai
##451
hahneman
lapynlong
lapynpaw
umsatai
amritsar
journey
derest
reiw
bravery
phones
success
rapido
chatra
dtl
rosetta
excellency
gazet
origin
microbi
ishongkhia
sheila
challenger
jeffry
943610
shakiar
nangpynkhlaiñ
sunnydale
jingïabam
aspir
basngewrit
ïasnohlang
##ithaïah
pynkyrkieh
mscpcr
nido
hydroelec
evans
evanton
їasaid
multiply
chapel
arimatha
jymphong
spartan
sparkle
nongshohdoh
nongïakhun
transactions
quota
gympad
iahiar
ndtv
kirkit
mattithaïah
genenral
victim
##ryngksai
mebanker
rpg
yogendra
##oyed
jingsaiñdur
karmakar
chemicals
conditions
clara
jpk
jtl
pyntiansmai
##nowledgement
focus
kharir
lingu
approach
umpire
shyamnagar
eligible
phodkroh
tagore
tagatha
hypertention
finely
khalki
khaldi
install
millia
regulated
holiwell
aiñhapoh
surajit
##326igp
jayanti
jayanthi
mooriap
halflong
##ahunki
retired
klaudius
liarkhla
richter
sayoo
jaidohkroh
basumatry
glory
glorious
jjng
shaining
jingїatiplem
mjct
mysore
##shalalu
kharbudnah
nucleus
pymih
vaiphei
mawlatang
samples
##nakl
jingpynïasuk
secrer
representative
tmung
tiller
zeliang
coimbat
rutit
balaitluid
archibishop
umjasai
rojet
blessing
aldous
orthopa
gulf
mtdf
nongshondur
jingrongnoh
bowl
pamphlet
joinriwell
entrepreneurship
claim
erastos
##239iewduh
ngunraw
ngundilang
sweetymon
alleged
ethiopia
joining
msmhc
rangapdien
reasonable
debojit
joïada
existence
moefcc
jaidbyn
muhammed
cgm
ddug
jivan
mshbeu
jingburieh
watchman
mandatory
iocl
nilesh
navodaya
preisdent
praibed
umlakhar
commssioner
diengkwai
prafulla
shebanaiah
shebanaïah
mallangkona
following
tribulation
freddy
dharambir
jingїathuhkhana
destroyed
mawthungkper
tusok
##shyrmit
pauline
dorengkigre
hypoc
newspaper
principles
attested
hughes
epiphan
diphu
ezekiel
hidden
pathankot
phukir
phrenly
assesment
speaking
emperor
apartments
kontrator
ancient
boats
jingpynbudnam
sookilo
microsoft
##126iewduh
promoter
auxiliary
yahweh
##kyntiap
baldw
pynshaïong
deiphibapynshngaiñ
##khristan
marshilong
mawkapiah
##iateilang
bianca
rafale
muzaffar
severe
dowry
solidarity
traveller
kenedy
moolamylliang
sacrifices
kwilnis
swayamsevak
zubin
##gopalachari
nagpur
mawramsong
##eduledistance
immortal
amsarin
biggest
diengtlai
panopticon
dapbianglin
hnamte
ronghiya
divalicious
purandare
tarpaulin
gasperly
dimarkithmu
accelerated
provincialization
pharmacist
pillangkata
catchment
beginning
fernandes
acknowledgement
kendriya
sranly
uchchatar
wlytan
##while
nasamy
khiemusniang
marshiangbai
pynpoihun
kongripara
##education
jingkhylliap
12481
kombiraid
deluxe
lawrynniang
lawbyrwa
lawriniang
2222277
hattaabah
sabatton
charitable
uttrayan
recreation
dateibankynmaw
electrification
gurdwara
defecation
jagadish
mattithaiah
davisgoldfield
oragitok
aluminium
recognised
ethanol
fbcci
glamanand
h1n1
ideology
myllat
vietnam
yesterday
kibroth
lalawm
ïapler
nafees
shatrughan
articles
nethralaya
megawatts
skjclf
commttee
lumroman
riewїakhun
garrison
amsterdam
degrees
khliehrangnah
leoberth
aneiglpa
montagnier
namphrangmi
polycarp
screened
nogorpara
caffeiñ
caligula
##ographi
hansaria
boldamgre
swsrj
golgotha
coimbatore
073
2tylli
4s
4hajar
5mm
5km
5kilo
719
711
736
830
atei
athei
aner
agh
aster
asir
bent
biti
bee
bngem
blak
bthap
boni
bicky
bwc
cai
cul
clim
cure
cite
dkh
dsit
dkhan
ekar
ecc
engan
ebe
esem
esar
ff
fad
ftr
fool
fiel
fama
fatty
gt
gis
goc
gab
glass
gatam
gps
gyna
hiang
hna
hock
hena
huppim
ien
iri
ino
ida
iait
iin
iung
ipa
ito
ingi
iod
irs
ign
ifa
ibhar
ibahun
iongreiñ
jel
jïa
jester
johi
keh
ksh
kus
kwan
koke
keston
klinker
lish
losing
mst
mpp
maph
mho
muiñ
nv
nduh
nul
nort
nerv
nso
nyc
oes
oren
ona
ostar
own
pv
pien
pdp
plead
pylliat
pesticides
rba
rnd
rpa
resh
ruben
retre
rope
skha
sle
skai
sce
sule
sick
skhen
tg
trim
tub
twel
t10
tyndep
udon
uab
utrai
ulysis
vm
vian
veer
went
wolf
wyrta
xp
yw
yr
yng
yang
yia
yeh
ydc
ylc
yfc
yemen
zb
zing
zin
îada
îano
ït
ïehnoh
ña
їuhroit
##eel
##az
##aon
##lynd
##lied
##lock
##oz
##ota
##oya
##obile
##olation
##uhai
##ubari
##uable
##syng
##sdot
##ycle
##wama
##cin
##ciation
##hit
##hul
##hel
##hmat
##hol
##hek
##hva
##peh
##pyrkhing
##iop
##inerator
##tol
##teiñ
##nh
##nil
##gat
##god
##gator
##dl
##deh
##diam
##dwar
##district
##riem
##rieng
##risa
##rist
##rous
##risha
##rls
##zing
##zon
##mgh
##kynr
##kaw
##kid
##kik
##kil
##kotduma
##990
##vo
##vet
##vity
##vens
##vada
##400
##jaid
##jra
##jel
##jaiaw
##bf
##bj
##bung
##bnoh
##buri
##butor
##1st
##674
##xon
##xter
##7104
##𝕟𝕘
kav
kapa
kadang
kaitar
kasla
kabai
kakt
kalak
kapar
kamara
kazi
kahanr
balaiñ
baana
basil
bacter
babita
baiateilang
kithie
kitiar
lana
lail
lathuh
lakhot
lasan
lathaw
lanc
laju
laso
lava
labs
lahari
latrine
##ynal
##ynwin
ïaï
ïamareh
ïadep
ïakheiñ
habor
halah
hakhi
##haath
##haki
##hanol
##ings
##ingon
##inger
##ingre
jingart
jingngat
jinglak
jingont
jingthap
jingsting
jingngiet
##arson
##aioth
shha
shok
shrad
shre
shsn
sheph
shrak
shield
shomer
shuppim
##ones
##onpara
jongman
nash
nach
nasa
najer
nayal
najngai
nadpeng
nahalal
nanak
naarah
##lamab
pynong
pynat
pynkam
pynlaw
pynshat
pynbabe
##atin
##neam
##neth
##nesi
##taïah
##tally
##taways
khom
khlang
khin
khian
khena
##umi
##umah
##ummim
nguk
##iae
shasha
shaaraim
##itngen
##itynnad
dau
dass
damonmi
##ams
##amai
##amble
##ampore
nongeit
nongnoh
nongshi
nongkhem
nongjrong
kattok
katoki
katïai
##hina
##hiarello
dont
donruh
##yrsiew
##utei
##utosh
##unlang
##unter
deiban
##isk
##enga
##enger
kumin
##erah
##erry
##emandhra
##urat
##uria
##urved
longman
mynin
khajia
khalid
iaj
iasan
iakhuh
ialuh
##thy
##thlei
##thrang
##thsem
##khyr
##khom
##khna
##khyllah
##khrip
##khnap
##khynnah
##riotic
##ework
kynun
kynnad
##shay
##shav
##shakhmat
##shakti
shibaje
shikham
shilling
##liat
##lious
##lini
##liloth
##duhnong
##ulai
##ulla
##timat
##estand
##esabel
##oment
aiding
aibuit
aimynsiem
##epo
##epers
##eposition
iohbiang
iohktah
hih
thia
thun
theng
thred
thynda
thwelson
##shra
##shukor
##ado
##adah
##ades
##adap
sorkat
sorkr
##othai
##otphran
##llon
##llet
tree
trab
true
troph
##kary
shnog
##etn
patlong
patde
bare
barisha
brom
ngiat
phiang
philling
wanhun
wanbun
wanbiang
wanpyns
wanthmu
##oibam
##dabaïah
nohkjat
lahdei
lahdep
##aler
##alisa
##sital
##sibon
##sides
kyrta
kyrsih
kyrjaw
jaa
jap
jayp
jaakan
jaasan
##idi
[...]
